unsigned char model_tflite[] = {
  0x1c, 0x00, 0x00, 0x00, 0x54, 0x46, 0x4c, 0x33, 0x14, 0x00, 0x20, 0x00,
  0x1c, 0x00, 0x18, 0x00, 0x14, 0x00, 0x10, 0x00, 0x0c, 0x00, 0x00, 0x00,
  0x08, 0x00, 0x04, 0x00, 0x14, 0x00, 0x00, 0x00, 0x1c, 0x00, 0x00, 0x00,
  0x80, 0x00, 0x00, 0x00, 0xd8, 0x00, 0x00, 0x00, 0x70, 0x2a, 0x00, 0x00,
  0x80, 0x2a, 0x00, 0x00, 0xb0, 0x2e, 0x00, 0x00, 0x03, 0x00, 0x00, 0x00,
  0x01, 0x00, 0x00, 0x00, 0x04, 0x00, 0x00, 0x00, 0x46, 0xd5, 0xff, 0xff,
  0x0c, 0x00, 0x00, 0x00, 0x1c, 0x00, 0x00, 0x00, 0x38, 0x00, 0x00, 0x00,
  0x0f, 0x00, 0x00, 0x00, 0x73, 0x65, 0x72, 0x76, 0x69, 0x6e, 0x67, 0x5f,
  0x64, 0x65, 0x66, 0x61, 0x75, 0x6c, 0x74, 0x00, 0x01, 0x00, 0x00, 0x00,
  0x04, 0x00, 0x00, 0x00, 0x9c, 0xff, 0xff, 0xff, 0x07, 0x00, 0x00, 0x00,
  0x04, 0x00, 0x00, 0x00, 0x07, 0x00, 0x00, 0x00, 0x64, 0x65, 0x6e, 0x73,
  0x65, 0x5f, 0x31, 0x00, 0x01, 0x00, 0x00, 0x00, 0x04, 0x00, 0x00, 0x00,
  0x12, 0xd6, 0xff, 0xff, 0x04, 0x00, 0x00, 0x00, 0x07, 0x00, 0x00, 0x00,
  0x69, 0x6e, 0x70, 0x75, 0x74, 0x5f, 0x31, 0x00, 0x02, 0x00, 0x00, 0x00,
  0x34, 0x00, 0x00, 0x00, 0x04, 0x00, 0x00, 0x00, 0xdc, 0xff, 0xff, 0xff,
  0x0a, 0x00, 0x00, 0x00, 0x04, 0x00, 0x00, 0x00, 0x13, 0x00, 0x00, 0x00,
  0x43, 0x4f, 0x4e, 0x56, 0x45, 0x52, 0x53, 0x49, 0x4f, 0x4e, 0x5f, 0x4d,
  0x45, 0x54, 0x41, 0x44, 0x41, 0x54, 0x41, 0x00, 0x08, 0x00, 0x0c, 0x00,
  0x08, 0x00, 0x04, 0x00, 0x08, 0x00, 0x00, 0x00, 0x09, 0x00, 0x00, 0x00,
  0x04, 0x00, 0x00, 0x00, 0x13, 0x00, 0x00, 0x00, 0x6d, 0x69, 0x6e, 0x5f,
  0x72, 0x75, 0x6e, 0x74, 0x69, 0x6d, 0x65, 0x5f, 0x76, 0x65, 0x72, 0x73,
  0x69, 0x6f, 0x6e, 0x00, 0x0b, 0x00, 0x00, 0x00, 0x94, 0x29, 0x00, 0x00,
  0x8c, 0x29, 0x00, 0x00, 0x78, 0x29, 0x00, 0x00, 0x98, 0x28, 0x00, 0x00,
  0x78, 0x01, 0x00, 0x00, 0xa0, 0x00, 0x00, 0x00, 0x98, 0x00, 0x00, 0x00,
  0x90, 0x00, 0x00, 0x00, 0x88, 0x00, 0x00, 0x00, 0x68, 0x00, 0x00, 0x00,
  0x04, 0x00, 0x00, 0x00, 0xb2, 0xd6, 0xff, 0xff, 0x04, 0x00, 0x00, 0x00,
  0x54, 0x00, 0x00, 0x00, 0x0c, 0x00, 0x00, 0x00, 0x08, 0x00, 0x0e, 0x00,
  0x08, 0x00, 0x04, 0x00, 0x08, 0x00, 0x00, 0x00, 0x10, 0x00, 0x00, 0x00,
  0x24, 0x00, 0x00, 0x00, 0x00, 0x00, 0x06, 0x00, 0x08, 0x00, 0x04, 0x00,
  0x06, 0x00, 0x00, 0x00, 0x04, 0x00, 0x00, 0x00, 0x00, 0x00, 0x00, 0x00,
  0x00, 0x00, 0x0a, 0x00, 0x10, 0x00, 0x0c, 0x00, 0x08, 0x00, 0x04, 0x00,
  0x0a, 0x00, 0x00, 0x00, 0x02, 0x00, 0x00, 0x00, 0x02, 0x00, 0x00, 0x00,
  0x04, 0x00, 0x00, 0x00, 0x06, 0x00, 0x00, 0x00, 0x32, 0x2e, 0x31, 0x32,
  0x2e, 0x30, 0x00, 0x00, 0x12, 0xd7, 0xff, 0xff, 0x04, 0x00, 0x00, 0x00,
  0x10, 0x00, 0x00, 0x00, 0x31, 0x2e, 0x31, 0x34, 0x2e, 0x30, 0x00, 0x00,
  0x00, 0x00, 0x00, 0x00, 0x00, 0x00, 0x00, 0x00, 0xfc, 0xd2, 0xff, 0xff,
  0x00, 0xd3, 0xff, 0xff, 0x04, 0xd3, 0xff, 0xff, 0x3a, 0xd7, 0xff, 0xff,
  0x04, 0x00, 0x00, 0x00, 0xc8, 0x00, 0x00, 0x00, 0x0f, 0xe8, 0xf8, 0xbd,
  0xb1, 0xf9, 0x6f, 0xbe, 0xd6, 0x6f, 0x10, 0x3e, 0x8e, 0x58, 0x14, 0xbd,
  0x68, 0xe1, 0x88, 0xbe, 0x66, 0x75, 0xbf, 0x3e, 0x25, 0x84, 0x8b, 0xbe,
  0xb7, 0x52, 0x21, 0x3e, 0xa1, 0xdf, 0x66, 0x3d, 0x71, 0x0f, 0x8f, 0xbe,
  0x40, 0x4a, 0xb2, 0xbd, 0xae, 0x14, 0xd0, 0x3d, 0x92, 0x3c, 0xfd, 0x3d,
  0xd9, 0x0c, 0xcf, 0xbd, 0xe3, 0xcc, 0x77, 0x3e, 0x53, 0x62, 0x3c, 0x3e,
  0x76, 0xe3, 0x5d, 0xbe, 0x99, 0x84, 0x43, 0x3e, 0xb0, 0xc5, 0x88, 0x3e,
  0xe2, 0x44, 0x1f, 0x3e, 0xf2, 0x4a, 0x47, 0x3e, 0x9d, 0x78, 0x3f, 0xbd,
  0x7d, 0x89, 0x9f, 0x3e, 0x96, 0x16, 0xa3, 0x3e, 0x9d, 0x68, 0x00, 0x3e,
  0x4e, 0xa7, 0x4d, 0xbe, 0x8b, 0xf2, 0x86, 0xbd, 0xbc, 0xc5, 0x0b, 0xbe,
  0xf0, 0xda, 0x82, 0xbe, 0xbf, 0x48, 0xab, 0x3e, 0x4c, 0x3b, 0xa1, 0x3e,
  0xc2, 0xd0, 0xe8, 0xbc, 0x6f, 0x5a, 0x10, 0xbe, 0x3c, 0xb5, 0xcb, 0x3e,
  0x05, 0x87, 0xc6, 0xbd, 0x44, 0x6c, 0x94, 0x3e, 0xb3, 0xc7, 0x3a, 0xbd,
  0xd9, 0x3d, 0xce, 0xbd, 0xcc, 0xf0, 0x8a, 0xbe, 0x1a, 0xa3, 0x96, 0x3e,
  0x40, 0x44, 0xf5, 0x3d, 0x40, 0xb1, 0x7e, 0x3e, 0x69, 0x68, 0x38, 0xbe,
  0xf8, 0xa7, 0x78, 0x3e, 0xab, 0x4b, 0x0e, 0xbd, 0xc8, 0x12, 0x5b, 0x3e,
  0x04, 0x20, 0xc4, 0x3e, 0xb0, 0xd2, 0x63, 0x3e, 0x90, 0x3a, 0xd5, 0x3e,
  0x1f, 0x6d, 0xbd, 0x3e, 0x0e, 0xd8, 0xff, 0xff, 0x04, 0x00, 0x00, 0x00,
  0x10, 0x27, 0x00, 0x00, 0xe7, 0xac, 0xa8, 0xbd, 0x63, 0xe1, 0x2a, 0x3b,
  0xd0, 0xe5, 0x42, 0x3d, 0x50, 0xc0, 0x5b, 0xbe, 0xfa, 0xfd, 0x69, 0xbd,
  0x22, 0xa3, 0x48, 0x3e, 0xf2, 0x88, 0xff, 0xba, 0x00, 0x7b, 0xc4, 0xbc,
  0x13, 0x47, 0xa0, 0xbd, 0xbb, 0x27, 0x2a, 0xbe, 0x78, 0x71, 0x74, 0xbb,
  0x1d, 0xca, 0x78, 0xbe, 0xc3, 0x85, 0xea, 0xbd, 0x53, 0x5e, 0x12, 0xbb,
  0x2c, 0x64, 0x74, 0x3e, 0x98, 0x87, 0x6c, 0xbd, 0x5b, 0x31, 0x42, 0x3e,
  0xcd, 0xe3, 0x0a, 0xbd, 0xc2, 0x16, 0x61, 0xbe, 0x37, 0xb5, 0xc7, 0x3c,
  0x5c, 0x02, 0x84, 0x3e, 0x35, 0x24, 0x90, 0xbe, 0x4d, 0xa8, 0x4c, 0xbe,
  0xa4, 0x44, 0xf8, 0x3d, 0xd3, 0x43, 0xba, 0xbd, 0x6c, 0xb2, 0x3d, 0x3d,
  0xb6, 0xa9, 0x4d, 0x3e, 0xc6, 0x7a, 0x55, 0xbd, 0x28, 0x68, 0x3c, 0x3e,
  0xc9, 0x86, 0xb5, 0x3d, 0x9c, 0xdf, 0xa4, 0xbd, 0xb4, 0x33, 0xe9, 0xbd,
  0xc2, 0xae, 0x76, 0x3a, 0x07, 0xd0, 0x06, 0xbd, 0x87, 0x1e, 0xb2, 0x3d,
  0x1b, 0x94, 0x44, 0xbe, 0xd8, 0x83, 0xa7, 0xbe, 0xd1, 0x7c, 0x92, 0x3d,
  0x76, 0xdc, 0x81, 0x3d, 0x5a, 0xe2, 0x38, 0xbe, 0xd6, 0xe6, 0x82, 0xbd,
  0xbf, 0x2d, 0xab, 0xbb, 0x5d, 0x7c, 0x2e, 0xbe, 0x3b, 0x10, 0x0b, 0xbe,
  0xcb, 0x22, 0x5a, 0x3c, 0x2b, 0x6f, 0x0d, 0xbd, 0x2a, 0x1d, 0x4b, 0xbe,
  0x42, 0x3c, 0x17, 0x3e, 0xb8, 0x33, 0x50, 0x3d, 0x26, 0x31, 0xa2, 0xbd,
  0xf8, 0x7b, 0x6a, 0x3d, 0x4c, 0xd7, 0x66, 0x3e, 0xa7, 0xc3, 0x22, 0x3e,
  0x26, 0xba, 0xe2, 0xbb, 0xc7, 0xac, 0x9d, 0xbd, 0xf0, 0xd8, 0x99, 0x3e,
  0x62, 0x08, 0x99, 0xbc, 0xfe, 0xca, 0x99, 0x3c, 0x8e, 0xdc, 0x9a, 0x3d,
  0x00, 0x34, 0xe6, 0xbc, 0x5f, 0x33, 0x42, 0xbe, 0xe2, 0x80, 0xe1, 0xbc,
  0x32, 0x12, 0x5d, 0x3d, 0x9d, 0xf1, 0x2d, 0xbe, 0x7f, 0x13, 0x0e, 0x3e,
  0xcf, 0x3e, 0x13, 0x3e, 0x0c, 0x6b, 0x9a, 0x3d, 0xb2, 0x15, 0x2f, 0xbd,
  0xf0, 0x80, 0x00, 0x3e, 0xed, 0x90, 0xeb, 0x3c, 0xc6, 0x57, 0x7a, 0x3b,
  0x04, 0xe4, 0x16, 0xbe, 0x66, 0x6f, 0xa7, 0xbc, 0xf0, 0xd5, 0x43, 0xbe,
  0xdb, 0x6e, 0x1d, 0x3e, 0x46, 0xb1, 0xcb, 0x3d, 0xb4, 0x7a, 0x12, 0xbd,
  0x63, 0xb8, 0x9a, 0x3d, 0x50, 0x13, 0x72, 0x3d, 0x51, 0x07, 0x0a, 0x3e,
  0x1c, 0x38, 0x1b, 0x3e, 0x4a, 0xe8, 0x59, 0xbe, 0x68, 0x51, 0x60, 0x3d,
  0x97, 0x3d, 0xda, 0xbd, 0xd6, 0xb6, 0xf5, 0xbd, 0x8c, 0x7a, 0x3d, 0x3d,
  0xcb, 0x21, 0x12, 0xbe, 0x06, 0xb0, 0x4b, 0xbe, 0xef, 0xeb, 0xf6, 0x3d,
  0x75, 0xa7, 0x31, 0xbd, 0x82, 0x0a, 0xb9, 0x3d, 0x8d, 0x8a, 0x09, 0x3e,
  0x7d, 0x60, 0x40, 0x3d, 0x8c, 0xec, 0xa4, 0x3d, 0xc8, 0xd2, 0x14, 0x3e,
  0x01, 0x48, 0x8b, 0xbd, 0x06, 0x60, 0x1d, 0x3e, 0x36, 0x3c, 0x3c, 0x3d,
  0x7b, 0xfd, 0x8b, 0x3d, 0x9a, 0xe9, 0x11, 0xbe, 0x3c, 0x2c, 0x15, 0xbe,
  0xd0, 0x66, 0x0d, 0xbd, 0xc2, 0x24, 0x36, 0x3e, 0x37, 0xf2, 0xce, 0xbd,
  0xfd, 0x7f, 0x99, 0xbe, 0xc2, 0xc2, 0x1a, 0xbe, 0x31, 0xbd, 0x69, 0x3e,
  0x82, 0xce, 0xc4, 0x3d, 0x28, 0xf1, 0x6b, 0x3e, 0x65, 0xa2, 0x7d, 0x3e,
  0xdb, 0xe3, 0x57, 0xbe, 0x3d, 0x19, 0x06, 0xbd, 0x73, 0x0a, 0x65, 0xbe,
  0x8b, 0x4e, 0x1c, 0x3e, 0x4e, 0xb5, 0x5a, 0xbe, 0x7c, 0xbc, 0xe8, 0x3d,
  0x54, 0xe1, 0xd1, 0xbd, 0xde, 0x39, 0xac, 0x3d, 0xd5, 0x55, 0xd8, 0xbd,
  0x3c, 0xbe, 0x8a, 0xbe, 0x9b, 0x18, 0x42, 0xbd, 0x29, 0x97, 0xb7, 0x3d,
  0xc7, 0xd4, 0xd4, 0xbc, 0x43, 0xc1, 0x65, 0xbd, 0x89, 0xe0, 0x9d, 0xbd,
  0xbc, 0xf9, 0x4a, 0xbd, 0x3c, 0x96, 0x4b, 0xbe, 0xe4, 0x2c, 0x8e, 0xbd,
  0x32, 0xea, 0x5f, 0xbd, 0xdc, 0xb2, 0x6f, 0xbd, 0x0a, 0xda, 0x36, 0x3e,
  0x96, 0xcc, 0x16, 0x3e, 0xee, 0x8c, 0x64, 0x3d, 0x58, 0xca, 0xb2, 0x3d,
  0xad, 0x73, 0x8b, 0xbd, 0x73, 0xfd, 0xe1, 0x3c, 0x01, 0xaa, 0x51, 0xbd,
  0xe0, 0x3d, 0x09, 0x3e, 0xf6, 0x06, 0x06, 0x3d, 0x2f, 0xe5, 0x95, 0xbd,
  0xeb, 0x9e, 0x3a, 0xbd, 0x61, 0xc7, 0xe1, 0x3d, 0x19, 0xfd, 0x7d, 0xbe,
  0xe8, 0xfa, 0x1f, 0xbe, 0x06, 0x4c, 0x32, 0x3e, 0x2e, 0x24, 0xaa, 0x3d,
  0xc3, 0x3f, 0x9e, 0xbd, 0x76, 0x2b, 0x5b, 0x3d, 0x86, 0x33, 0x90, 0xbe,
  0x35, 0xf3, 0x0a, 0x3e, 0x85, 0xd5, 0xd9, 0x3d, 0x95, 0x7e, 0x47, 0x3e,
  0xf1, 0xc4, 0xe0, 0xbd, 0xd4, 0x58, 0x78, 0xbd, 0xef, 0xf4, 0xfd, 0xbc,
  0xf1, 0xf2, 0xe4, 0x3c, 0xf4, 0x2a, 0x6c, 0xbe, 0x4e, 0x81, 0xc5, 0x3d,
  0x27, 0x80, 0xbb, 0x3d, 0x54, 0x5b, 0x54, 0x3e, 0x58, 0x6d, 0xe7, 0xbd,
  0xc0, 0xca, 0x5f, 0xbe, 0x37, 0xc7, 0x09, 0xbe, 0x75, 0xc5, 0xde, 0xbd,
  0xfd, 0x6a, 0x44, 0x3d, 0xf0, 0x9e, 0x32, 0x3e, 0x4a, 0x9d, 0x66, 0x3d,
  0x1f, 0xd7, 0x61, 0x3b, 0x89, 0x1c, 0x73, 0x3d, 0x9b, 0xb5, 0xe3, 0xbd,
  0x24, 0x20, 0xd8, 0xbd, 0xe0, 0xfa, 0xbf, 0xbd, 0x6b, 0xf6, 0x91, 0x3e,
  0x74, 0x2d, 0x69, 0xbc, 0xd1, 0x94, 0xa1, 0xbd, 0x54, 0x01, 0xda, 0xbd,
  0xba, 0x9a, 0x3f, 0x3e, 0xa7, 0x89, 0xec, 0x3d, 0x2b, 0x3f, 0x3f, 0x3e,
  0x9e, 0xec, 0x73, 0xbd, 0x7f, 0x2e, 0xdc, 0x3d, 0x67, 0xc1, 0x27, 0x3d,
  0x2b, 0xb0, 0xe6, 0xbb, 0x7f, 0x8b, 0xe3, 0x3c, 0xb3, 0x41, 0x4b, 0x3d,
  0x20, 0x0b, 0x83, 0x3d, 0x32, 0xcc, 0xa6, 0xbc, 0x83, 0xdc, 0x24, 0x3d,
  0x95, 0xdb, 0xc4, 0x3c, 0x6d, 0x0c, 0x5f, 0x3e, 0x10, 0xc0, 0xbb, 0xbd,
  0x02, 0xf4, 0xe7, 0xbc, 0xeb, 0x1a, 0x72, 0x3e, 0x69, 0xfb, 0xeb, 0x3d,
  0x14, 0xd9, 0xec, 0xbd, 0x4f, 0xe1, 0x11, 0x3e, 0xf7, 0x5c, 0x4e, 0x3e,
  0x8c, 0xf2, 0x00, 0xbe, 0x3c, 0xb9, 0x46, 0x3e, 0xc1, 0xc9, 0x38, 0x3d,
  0x8c, 0x95, 0x7b, 0xbd, 0x72, 0xad, 0x52, 0xbd, 0x45, 0x66, 0x2e, 0xbe,
  0x9f, 0xca, 0x6a, 0x3d, 0x27, 0x17, 0x59, 0xbd, 0x3c, 0xe1, 0x6d, 0xbd,
  0x46, 0x9d, 0x88, 0xbd, 0xa0, 0x6f, 0x26, 0xbe, 0x4c, 0x60, 0x77, 0xbd,
  0x38, 0x5e, 0xc8, 0x3c, 0x99, 0x00, 0x73, 0x3e, 0x38, 0x20, 0x1d, 0xbd,
  0xc5, 0x32, 0xe9, 0x3d, 0x68, 0x45, 0xc1, 0x3d, 0x93, 0xf0, 0x1b, 0xbe,
  0x5d, 0x34, 0x27, 0x3e, 0x8c, 0x9b, 0x0f, 0x3e, 0xe2, 0x0b, 0xd4, 0x3d,
  0xde, 0xf1, 0x31, 0xbe, 0xbf, 0xa4, 0x81, 0xbd, 0x4b, 0x23, 0x12, 0x3d,
  0x39, 0x09, 0xdf, 0xbd, 0xe7, 0x21, 0x18, 0xbe, 0x2a, 0xa6, 0xc7, 0xbd,
  0xd8, 0xaf, 0x6b, 0x3d, 0x93, 0xc7, 0x4e, 0xbd, 0x4d, 0x76, 0x45, 0x3e,
  0x7a, 0xb4, 0x97, 0xbd, 0x3a, 0x98, 0x40, 0x3e, 0x3a, 0x58, 0x07, 0xbe,
  0x99, 0x41, 0x20, 0x3d, 0x98, 0x8a, 0xbe, 0xbd, 0xec, 0x77, 0xcd, 0x3d,
  0x5d, 0x2f, 0x30, 0x3e, 0x60, 0x61, 0xb2, 0x3d, 0xe5, 0x3e, 0x85, 0xbe,
  0xce, 0xc4, 0x65, 0xbe, 0xcf, 0xe9, 0xeb, 0xbc, 0x6b, 0xfb, 0x6b, 0xbe,
  0x70, 0x68, 0x0c, 0x3e, 0xd1, 0xf6, 0x84, 0x3e, 0xfe, 0xfd, 0x4f, 0x3e,
  0x7f, 0x05, 0xb5, 0xbd, 0x61, 0x7e, 0x15, 0x3e, 0x2b, 0x10, 0x0a, 0x3e,
  0xad, 0x41, 0xde, 0xbc, 0x2c, 0x67, 0x16, 0xbe, 0x28, 0x3e, 0x4c, 0xbd,
  0xa1, 0x60, 0x8c, 0xbd, 0x88, 0x1f, 0x21, 0xbd, 0x5b, 0xef, 0x04, 0x3e,
  0x8d, 0x5b, 0x77, 0xbe, 0x67, 0xa4, 0x0f, 0x3d, 0x79, 0xe5, 0x31, 0xbe,
  0xa2, 0x15, 0x04, 0x3e, 0xff, 0xa1, 0x18, 0x3e, 0x06, 0xc9, 0x37, 0xbd,
  0x2d, 0x17, 0x7f, 0xbb, 0xda, 0x3d, 0x0b, 0x3d, 0xf2, 0xd2, 0x1a, 0xbe,
  0x9e, 0xfe, 0x59, 0xbe, 0xee, 0x34, 0x84, 0xbd, 0xe3, 0x43, 0x8e, 0xbd,
  0xe9, 0xcc, 0x91, 0xbd, 0x19, 0xdc, 0xdc, 0x3d, 0x6c, 0x4d, 0x2e, 0xbe,
  0xe2, 0x0a, 0x86, 0x3e, 0xf7, 0x36, 0x3d, 0x3e, 0xe8, 0xd2, 0x3c, 0x3e,
  0x19, 0xad, 0x24, 0x3e, 0xb7, 0x49, 0x15, 0xbe, 0x9a, 0x21, 0xa7, 0xbd,
  0xf3, 0x5c, 0xc7, 0x3d, 0xc8, 0x32, 0x69, 0x3d, 0xd3, 0x79, 0x0c, 0xbe,
  0xa5, 0x5b, 0x24, 0xbc, 0x46, 0xd7, 0x1a, 0xbe, 0x4d, 0x30, 0x08, 0xbe,
  0x72, 0x39, 0x1d, 0xbe, 0x93, 0x03, 0xad, 0x3c, 0x9c, 0x41, 0x05, 0x3d,
  0x65, 0x38, 0x83, 0xbd, 0x4e, 0xe2, 0x84, 0xbe, 0xd8, 0x82, 0xe1, 0x3d,
  0xf6, 0x68, 0x2d, 0x3e, 0x3a, 0x44, 0x29, 0x3d, 0x60, 0x79, 0xc4, 0xbd,
  0xc4, 0x2c, 0x91, 0x3d, 0x87, 0x04, 0x74, 0xbd, 0x2d, 0x12, 0x74, 0x3e,
  0xf3, 0xfa, 0x80, 0xbc, 0xca, 0x19, 0x47, 0xbe, 0x40, 0xb2, 0x8f, 0xbb,
  0x88, 0xe5, 0xa9, 0x3c, 0x43, 0x55, 0x33, 0xbe, 0x94, 0x4f, 0x06, 0xbe,
  0xfe, 0x72, 0x74, 0x3e, 0x1c, 0x8b, 0x59, 0xbe, 0x99, 0x38, 0x5f, 0xbe,
  0x8d, 0xbd, 0x6e, 0xbd, 0x4b, 0xbf, 0x4a, 0x3e, 0x0a, 0xee, 0x40, 0xbe,
  0xa6, 0xd7, 0x96, 0xbe, 0x4c, 0xd7, 0xc9, 0x3b, 0x41, 0x7a, 0x13, 0x3d,
  0xbb, 0xfd, 0x1b, 0xbe, 0x5a, 0x1e, 0x2d, 0xbe, 0xb8, 0xae, 0x16, 0xbe,
  0x5f, 0xbe, 0xa2, 0x3d, 0xf4, 0xf7, 0x1f, 0x3e, 0x07, 0x8f, 0x49, 0xbe,
  0xd2, 0x9b, 0x12, 0xbe, 0x7f, 0x09, 0x43, 0x3e, 0xdd, 0x01, 0x13, 0xbe,
  0x01, 0x56, 0x04, 0xbe, 0x04, 0x0e, 0x13, 0x3e, 0x0d, 0xfb, 0x86, 0xbd,
  0x74, 0xe0, 0x69, 0xbe, 0x00, 0xb3, 0x44, 0xbe, 0xa2, 0xde, 0x19, 0xbe,
  0x95, 0x9a, 0x52, 0x3b, 0xa1, 0x7d, 0x8d, 0xbe, 0xef, 0xa5, 0xfd, 0x3d,
  0x2b, 0x61, 0xf7, 0xbd, 0xed, 0xdb, 0x21, 0x3e, 0x4d, 0xdb, 0x22, 0xbe,
  0x92, 0x0a, 0x74, 0xbd, 0x22, 0x65, 0x0c, 0x3e, 0x78, 0xdf, 0x76, 0xbd,
  0x0a, 0x07, 0x12, 0xbc, 0x01, 0x8b, 0x6d, 0xbc, 0x94, 0x92, 0x43, 0x3e,
  0x0a, 0x4a, 0x03, 0x3e, 0x9b, 0xc4, 0x74, 0xbd, 0x02, 0x87, 0x01, 0xbe,
  0x87, 0x7c, 0x6a, 0xbe, 0x1d, 0x3d, 0x1e, 0xbe, 0x62, 0xcb, 0x08, 0x3e,
  0x3a, 0x38, 0xa8, 0xbd, 0x32, 0xd1, 0x1e, 0x3c, 0x24, 0x19, 0xc5, 0xb8,
  0xff, 0x8f, 0x17, 0x3e, 0x74, 0xad, 0x36, 0x3e, 0x63, 0xaa, 0x1d, 0x3e,
  0xc1, 0xfb, 0x3b, 0xbe, 0x01, 0x26, 0x32, 0x3e, 0xae, 0xf6, 0xfc, 0x3d,
  0xa5, 0xf5, 0xd4, 0xbd, 0x89, 0x5c, 0xab, 0xbd, 0xda, 0x60, 0x34, 0x3d,
  0x0b, 0xff, 0x00, 0xbe, 0xe2, 0x54, 0xa1, 0xbd, 0x82, 0xa2, 0x5f, 0xbd,
  0x02, 0x56, 0x0a, 0xbc, 0xca, 0xea, 0xc6, 0x3b, 0x01, 0xc1, 0x45, 0xbd,
  0x57, 0xd3, 0x78, 0x3e, 0x09, 0x8a, 0x67, 0xbe, 0x42, 0x7b, 0x2c, 0xbe,
  0xff, 0x0d, 0x5f, 0xbe, 0x56, 0xd0, 0xbd, 0xbc, 0xf4, 0x17, 0x77, 0x3e,
  0x64, 0xe9, 0x29, 0x3e, 0x3d, 0xaa, 0x8c, 0x3e, 0x63, 0x99, 0x77, 0xbe,
  0x4a, 0x87, 0xe0, 0x3d, 0x48, 0x39, 0x28, 0xbe, 0x5a, 0xfd, 0x6a, 0x3e,
  0x83, 0xfd, 0x4a, 0xbe, 0x67, 0xab, 0x2e, 0xbe, 0x1d, 0x7f, 0x90, 0xbe,
  0x13, 0x66, 0x2b, 0xbe, 0xe9, 0x35, 0x05, 0xbe, 0xe1, 0x3a, 0x29, 0x3e,
  0x8e, 0x6b, 0x08, 0xbe, 0xf2, 0x4e, 0xff, 0x3d, 0x64, 0x68, 0x19, 0xbe,
  0x2a, 0x1c, 0x4a, 0xbe, 0xcd, 0xf5, 0xb8, 0xbd, 0x33, 0x9a, 0x94, 0xbd,
  0x0f, 0xf6, 0xbf, 0xbc, 0x3e, 0x9a, 0x66, 0x3e, 0xa2, 0x73, 0x4a, 0xbd,
  0x22, 0x2a, 0x14, 0xbe, 0x8b, 0x45, 0x5f, 0xbe, 0xc8, 0x84, 0xb6, 0x3d,
  0xb7, 0x67, 0xbd, 0xbd, 0x45, 0xf0, 0x8e, 0xbd, 0x52, 0x67, 0xa3, 0xbd,
  0x78, 0x32, 0x05, 0xbe, 0x63, 0x5d, 0xbc, 0x3d, 0x11, 0x62, 0x8e, 0xbd,
  0x61, 0x23, 0x4b, 0x3e, 0x14, 0xac, 0xc4, 0xbd, 0x62, 0x87, 0x1c, 0xbe,
  0xd2, 0xeb, 0x06, 0x3d, 0x61, 0xdd, 0xef, 0xbd, 0xe3, 0x81, 0x3b, 0xbd,
  0xa8, 0x68, 0x7c, 0x3e, 0x3d, 0xbc, 0x69, 0x3d, 0xce, 0xc2, 0x6b, 0x3e,
  0xcb, 0x49, 0x09, 0x3d, 0x35, 0xfc, 0x1b, 0xbe, 0x6b, 0xa7, 0x8e, 0xbd,
  0x76, 0x7d, 0x79, 0x3e, 0x03, 0x74, 0x7f, 0xbe, 0x46, 0xe2, 0x75, 0x3e,
  0x3e, 0xb2, 0x64, 0xbe, 0xd6, 0xaf, 0x77, 0xbd, 0xc0, 0xc0, 0x8c, 0x3e,
  0x6f, 0xa5, 0xc2, 0xbd, 0xb2, 0x34, 0x0a, 0xbe, 0x26, 0x30, 0x2e, 0xbe,
  0xbc, 0x3e, 0x92, 0xbd, 0x09, 0x2f, 0x0e, 0x3c, 0xb8, 0xcc, 0x3b, 0x3e,
  0x9d, 0x2c, 0xee, 0x3c, 0x56, 0xc1, 0x89, 0xbe, 0xde, 0x90, 0x5b, 0x3d,
  0x6f, 0xbb, 0x5a, 0xbe, 0xc8, 0xe8, 0x88, 0xbc, 0xa4, 0xe4, 0xb7, 0xbd,
  0x45, 0x2e, 0xd8, 0xbb, 0x88, 0x95, 0x3b, 0xbe, 0x8f, 0x4c, 0xb2, 0xbd,
  0xb3, 0x83, 0x8a, 0xbe, 0x74, 0x3a, 0xaa, 0x3d, 0xf8, 0x1a, 0xc4, 0x3d,
  0xd1, 0xfe, 0x25, 0xbe, 0xfc, 0x13, 0xbd, 0xb8, 0xb3, 0xdf, 0x13, 0xbe,
  0xe2, 0x67, 0xa1, 0x3d, 0x34, 0x9a, 0x42, 0xbe, 0x5b, 0x5d, 0x6a, 0xbe,
  0xfe, 0x8d, 0x7f, 0x3b, 0x49, 0xf3, 0x87, 0xbd, 0x1f, 0x02, 0xff, 0xbd,
  0xfb, 0x0c, 0x86, 0xbb, 0x77, 0x7c, 0x4a, 0xbd, 0x8a, 0xaf, 0x75, 0x3e,
  0xb6, 0x82, 0x09, 0x3e, 0xd4, 0x40, 0x7a, 0x3e, 0x14, 0xd0, 0x35, 0xbe,
  0xf8, 0xfa, 0x1f, 0x3d, 0xb0, 0x5f, 0xd1, 0xbd, 0xa9, 0x31, 0xde, 0xbd,
  0x5d, 0x5f, 0x5e, 0x3e, 0xe1, 0x8a, 0x02, 0x3e, 0x92, 0xfa, 0xda, 0xbc,
  0x23, 0x28, 0xe3, 0xbd, 0x52, 0xf7, 0x12, 0xbe, 0x76, 0x25, 0x3d, 0xbc,
  0x51, 0x3a, 0x8c, 0xbb, 0x52, 0x98, 0xef, 0x3d, 0x17, 0x20, 0x2d, 0xbe,
  0x34, 0x79, 0x45, 0x3e, 0x1e, 0xb1, 0x2d, 0x3e, 0x73, 0x6e, 0x09, 0xbe,
  0x73, 0x19, 0x01, 0xbd, 0x32, 0xaa, 0x55, 0x3b, 0xad, 0x24, 0x66, 0xbd,
  0xec, 0x47, 0x23, 0xbe, 0xf5, 0x0f, 0xfe, 0x3d, 0xd2, 0x21, 0xca, 0x3d,
  0x64, 0xe3, 0x45, 0x3e, 0xef, 0x2a, 0x5b, 0x3d, 0xc6, 0x50, 0xd5, 0xbc,
  0xa9, 0x65, 0x5e, 0xbe, 0x85, 0x85, 0x6c, 0x3e, 0x80, 0x76, 0x26, 0x3e,
  0xce, 0x33, 0x11, 0xbd, 0x55, 0xd5, 0x66, 0xbe, 0xe4, 0xda, 0x6b, 0x3c,
  0xa4, 0xbd, 0x8f, 0xbe, 0x4b, 0x16, 0x63, 0xbd, 0xa9, 0x97, 0x51, 0xbe,
  0x1d, 0xe0, 0x98, 0x3c, 0xce, 0x4f, 0x34, 0xbc, 0x0d, 0x77, 0x37, 0x3d,
  0x6b, 0x6b, 0x91, 0x3d, 0xcc, 0xde, 0xb6, 0x3d, 0x6f, 0x42, 0xb3, 0x3d,
  0x33, 0x05, 0x4b, 0xbe, 0x1d, 0xa7, 0xd1, 0x3d, 0x6f, 0x29, 0xb8, 0x3b,
  0xc8, 0x54, 0xf6, 0x3d, 0x7e, 0x26, 0x26, 0xbd, 0xdf, 0x39, 0x1b, 0xbe,
  0x19, 0xde, 0x31, 0xbe, 0x72, 0xd6, 0x35, 0x3d, 0x24, 0x08, 0x78, 0x3d,
  0xb4, 0xd7, 0x81, 0xbd, 0x6d, 0x42, 0x23, 0x3e, 0x34, 0x56, 0x56, 0xbe,
  0xbf, 0x91, 0x76, 0xbd, 0xf5, 0x88, 0xc0, 0xbd, 0x63, 0xdf, 0x19, 0x3e,
  0x7b, 0x90, 0x15, 0xbe, 0xb8, 0x41, 0x93, 0x3d, 0x64, 0xad, 0xb3, 0xbd,
  0xa5, 0x9c, 0x5e, 0xbd, 0xa9, 0xad, 0xf6, 0xbd, 0x54, 0x5c, 0x70, 0xbd,
  0x29, 0xfd, 0x1d, 0x3e, 0x89, 0x07, 0x1d, 0xbe, 0x7c, 0xd1, 0xb4, 0x3d,
  0x1b, 0xf1, 0xe8, 0xbb, 0x49, 0x09, 0x0e, 0xbe, 0x88, 0xb5, 0x9b, 0xbd,
  0x6c, 0x34, 0x19, 0xbe, 0x8b, 0xb2, 0x50, 0xbe, 0x74, 0xa9, 0x32, 0x3e,
  0x94, 0xdb, 0x15, 0x3e, 0x6f, 0x24, 0x41, 0x3e, 0x35, 0x00, 0xa7, 0x3c,
  0x6b, 0xf5, 0x8a, 0x3c, 0x2e, 0xa4, 0x00, 0xbc, 0xf3, 0x0b, 0xf9, 0xbc,
  0xe3, 0xde, 0x53, 0xbe, 0x00, 0x92, 0x0a, 0x3e, 0x2d, 0x70, 0x16, 0xbe,
  0x2e, 0x2e, 0x2a, 0xbe, 0x85, 0xb5, 0x52, 0x3d, 0xd8, 0x22, 0xb5, 0x3b,
  0x0e, 0x55, 0xd0, 0xbd, 0x64, 0x86, 0x26, 0x3d, 0xe9, 0x8b, 0xc8, 0xbd,
  0x39, 0x08, 0x29, 0x3e, 0x86, 0x84, 0x99, 0x3d, 0x0d, 0xa0, 0x2c, 0xbe,
  0x3d, 0x99, 0x59, 0x3e, 0xdd, 0xb4, 0x49, 0xbe, 0x19, 0x69, 0xff, 0xbd,
  0x69, 0x86, 0x95, 0x3c, 0x03, 0xf2, 0x92, 0xbd, 0x70, 0x4e, 0x7b, 0xbe,
  0x2a, 0xcd, 0x85, 0xbe, 0xbc, 0x21, 0x60, 0x3d, 0xc1, 0xa4, 0xaf, 0x3d,
  0x03, 0x74, 0x12, 0x3e, 0xfe, 0x9f, 0xbd, 0xbd, 0x7b, 0x66, 0x17, 0x3c,
  0x97, 0xe7, 0x01, 0x3e, 0xac, 0x82, 0x44, 0xbe, 0x46, 0x2f, 0x97, 0xbd,
  0x72, 0x4e, 0x3a, 0x3c, 0x0c, 0x5a, 0x43, 0xbe, 0xd1, 0x52, 0xe8, 0xbd,
  0x23, 0xee, 0x65, 0xbd, 0xf7, 0x5f, 0x27, 0x3d, 0xa1, 0xa3, 0x74, 0x3e,
  0xcc, 0xae, 0xa8, 0xbd, 0x7d, 0x37, 0x2b, 0x3e, 0xc7, 0x67, 0x84, 0x3d,
  0x8b, 0x2d, 0x42, 0x3e, 0x60, 0x33, 0x59, 0xbe, 0xfb, 0xb2, 0x4d, 0x3e,
  0xef, 0xd0, 0x5f, 0xbe, 0x33, 0x9a, 0x61, 0x3e, 0x5c, 0x20, 0x7d, 0x3e,
  0xb2, 0x75, 0x73, 0xbe, 0x2e, 0x7c, 0x5c, 0x3e, 0xcd, 0xbf, 0x42, 0xbe,
  0x42, 0x84, 0xf0, 0x3d, 0x55, 0x52, 0x92, 0xbe, 0xde, 0xef, 0xf2, 0xbd,
  0xe1, 0x71, 0x7c, 0x3e, 0x9f, 0x3a, 0x85, 0x3e, 0x74, 0x39, 0x35, 0xbd,
  0x37, 0xdc, 0x3f, 0x3e, 0x80, 0x28, 0x4a, 0x3e, 0xb0, 0xee, 0x88, 0x3e,
  0xaa, 0xdc, 0x62, 0xbd, 0x5e, 0x71, 0x3b, 0x3e, 0x2c, 0x22, 0x01, 0x3d,
  0x87, 0x50, 0x73, 0x3e, 0x70, 0x02, 0x1a, 0x3e, 0x0d, 0x6b, 0x5a, 0xbd,
  0x1c, 0x8e, 0x7d, 0xbe, 0x85, 0x59, 0x68, 0x3d, 0xcb, 0x6c, 0x6c, 0x3e,
  0x23, 0x4f, 0x5d, 0x3e, 0x2f, 0xc9, 0x27, 0xbe, 0x0e, 0x7d, 0x43, 0x3e,
  0xb1, 0x87, 0x15, 0xbe, 0x94, 0x54, 0x4b, 0xbe, 0x82, 0xaf, 0x2b, 0xbd,
  0xc6, 0x4c, 0xf2, 0xbd, 0x9f, 0x47, 0x1d, 0x3e, 0x7d, 0x7d, 0x67, 0x3e,
  0x72, 0x15, 0xc8, 0x3c, 0x97, 0x03, 0x59, 0xbe, 0x04, 0xb4, 0x1b, 0xbd,
  0x00, 0x21, 0x2d, 0xbe, 0x32, 0xca, 0xd1, 0xbd, 0x1d, 0x44, 0x05, 0xbe,
  0x75, 0x53, 0x2e, 0x3d, 0x77, 0xc5, 0xc4, 0x3c, 0x84, 0x96, 0x53, 0x3e,
  0x00, 0xa5, 0xe9, 0xbc, 0x40, 0x89, 0x13, 0x3e, 0x89, 0x78, 0xa4, 0xbc,
  0xf6, 0xab, 0x27, 0x3e, 0xfa, 0x09, 0x28, 0x3e, 0x2e, 0x5c, 0x4d, 0xbe,
  0x0c, 0xa1, 0xa9, 0x3b, 0x7d, 0x55, 0x00, 0x3e, 0x2b, 0x2c, 0x04, 0x3e,
  0x80, 0x5f, 0x31, 0x3e, 0x93, 0xce, 0xba, 0xbd, 0x07, 0x7d, 0x7f, 0xbe,
  0x04, 0x68, 0x48, 0xbd, 0xe5, 0xce, 0x91, 0xbe, 0x36, 0x72, 0x6c, 0x3e,
  0xef, 0x07, 0x3e, 0xbe, 0x20, 0x03, 0x85, 0x3e, 0x3e, 0xb3, 0x40, 0xbe,
  0x4f, 0x2f, 0x2c, 0x3e, 0xaa, 0x94, 0x39, 0x3d, 0x9a, 0x38, 0x23, 0x3e,
  0xc3, 0xb8, 0x13, 0x3d, 0x20, 0xc4, 0x30, 0xbe, 0x75, 0x07, 0xd0, 0xbd,
  0x28, 0x8a, 0x81, 0x3c, 0x07, 0xb3, 0xf2, 0xbd, 0x19, 0x90, 0xf8, 0x3d,
  0x62, 0xb1, 0xcd, 0x3d, 0x70, 0xb1, 0xd1, 0x3d, 0xed, 0x8f, 0x52, 0x3e,
  0x2e, 0x5e, 0xb0, 0x3c, 0x89, 0xdd, 0x7e, 0x3e, 0xf0, 0xab, 0x9f, 0x3d,
  0x1d, 0x1a, 0xba, 0xbd, 0x4e, 0xc7, 0x3e, 0xbe, 0x55, 0xfb, 0x00, 0xbe,
  0x87, 0xeb, 0x50, 0xbe, 0x55, 0x73, 0x0d, 0x3e, 0xb3, 0xfc, 0xb9, 0xbc,
  0xd9, 0xa9, 0x23, 0xbe, 0xd5, 0x94, 0x09, 0xbd, 0xde, 0xe1, 0x90, 0xbb,
  0xa1, 0x29, 0x26, 0x3e, 0x1e, 0xdd, 0x2b, 0xbe, 0x66, 0x8f, 0xa2, 0x3d,
  0xb2, 0x3a, 0x88, 0xbd, 0x89, 0xed, 0x91, 0x3e, 0x75, 0xb4, 0x5f, 0x3e,
  0x30, 0x60, 0x00, 0xbe, 0xbd, 0xd8, 0x73, 0x3e, 0x46, 0xa7, 0x4d, 0x3e,
  0x33, 0xb6, 0x3b, 0xbe, 0x32, 0xda, 0x17, 0xbe, 0xd8, 0x17, 0x54, 0x3e,
  0xb8, 0xb7, 0x13, 0x39, 0x33, 0x0a, 0xee, 0xbd, 0x7a, 0x41, 0x92, 0x3d,
  0x86, 0xe1, 0x48, 0x3e, 0xd8, 0xa2, 0x1c, 0x3e, 0x94, 0xf6, 0x83, 0x3d,
  0x7c, 0x02, 0x51, 0x3e, 0x3f, 0xdb, 0x21, 0xbe, 0x4d, 0x41, 0x1e, 0xbd,
  0x76, 0xf3, 0xa8, 0x3d, 0x35, 0xb3, 0xb0, 0x3d, 0x92, 0x7f, 0xc3, 0x3d,
  0xda, 0xb3, 0x48, 0x3e, 0xa3, 0x70, 0x8e, 0x3b, 0xff, 0x7a, 0x49, 0xbd,
  0x8a, 0xae, 0xf5, 0x3d, 0x3b, 0x64, 0x0d, 0x3d, 0x74, 0xb6, 0x2e, 0x3d,
  0x8a, 0x6c, 0x38, 0x3e, 0x50, 0xf2, 0x96, 0xbd, 0xea, 0x39, 0x05, 0xbe,
  0xb5, 0x17, 0x98, 0xbc, 0x52, 0x6e, 0x60, 0xbd, 0x65, 0x18, 0x6e, 0x3d,
  0x67, 0x5e, 0x81, 0x3e, 0xd2, 0x62, 0x29, 0xbd, 0xec, 0xc9, 0x0e, 0xbe,
  0xb6, 0x77, 0x81, 0xbd, 0x0b, 0x88, 0xbc, 0xbd, 0xc0, 0xcd, 0x97, 0xbd,
  0xc0, 0xc7, 0x4c, 0x3c, 0x42, 0x49, 0x18, 0xbd, 0xbb, 0x76, 0x8e, 0xbd,
  0x9a, 0x0c, 0xaa, 0xbd, 0x5b, 0x58, 0xfa, 0xbd, 0x01, 0xaf, 0x7e, 0x3c,
  0xb0, 0x34, 0x86, 0x3c, 0xae, 0x6d, 0x04, 0xbd, 0xee, 0xfa, 0xc0, 0xbd,
  0x27, 0xf3, 0xd1, 0xbd, 0x60, 0xb8, 0x5f, 0x3d, 0x71, 0x93, 0xd6, 0x3d,
  0x70, 0xef, 0x47, 0x3d, 0x0d, 0xf3, 0x28, 0x3d, 0x55, 0x89, 0xe1, 0xbd,
  0xdb, 0x48, 0x3b, 0x3b, 0xd2, 0x4a, 0x1a, 0x3e, 0xb8, 0x06, 0x29, 0xbe,
  0x6e, 0x20, 0x26, 0x3c, 0x90, 0x94, 0x9d, 0xbd, 0xd0, 0x26, 0xba, 0x3d,
  0x26, 0xe3, 0x1e, 0x3e, 0xcb, 0xe6, 0x11, 0xbd, 0x03, 0xe4, 0x3d, 0xbd,
  0x98, 0x57, 0x57, 0xbe, 0xc3, 0xd3, 0x7e, 0xbe, 0x35, 0x5c, 0x2b, 0xbe,
  0x92, 0x36, 0x11, 0xbe, 0x85, 0xc7, 0xd2, 0x3d, 0x81, 0x7b, 0x9a, 0xbd,
  0x5b, 0x18, 0x6e, 0x3e, 0x36, 0x98, 0xd4, 0x3d, 0x40, 0xe8, 0x24, 0xbd,
  0xf4, 0x37, 0x67, 0x3c, 0x21, 0x4f, 0x2c, 0x3c, 0xb9, 0x8a, 0x38, 0xbe,
  0x17, 0xcb, 0x7c, 0x3e, 0x24, 0x10, 0x26, 0x3e, 0x11, 0x68, 0x2a, 0x3d,
  0xf5, 0x57, 0x73, 0xbd, 0xbb, 0xf9, 0x0f, 0xbe, 0x78, 0x85, 0xba, 0xbd,
  0x34, 0xde, 0x48, 0x3d, 0xc1, 0xf9, 0x41, 0xbd, 0xa4, 0x72, 0x9e, 0xbd,
  0x44, 0x44, 0xac, 0x3d, 0x49, 0x4b, 0x8e, 0xbe, 0xe3, 0x9f, 0x83, 0xbe,
  0x17, 0x9a, 0x00, 0xbd, 0x1c, 0x72, 0xdd, 0x3b, 0x54, 0xb3, 0x62, 0xbe,
  0x95, 0xc0, 0xe5, 0x3d, 0x69, 0x90, 0xcc, 0xbd, 0x48, 0x7f, 0x87, 0x3e,
  0xfe, 0xb1, 0x2f, 0x3e, 0x11, 0x8f, 0x28, 0x3e, 0xb7, 0x7a, 0x69, 0xbd,
  0xfb, 0x29, 0x37, 0x3e, 0x1f, 0x4f, 0x31, 0xbe, 0xeb, 0x88, 0x93, 0x3d,
  0x78, 0x6e, 0x49, 0x3e, 0x95, 0x8c, 0x4b, 0x3e, 0xf0, 0xbd, 0x39, 0xbe,
  0x1c, 0xc3, 0x38, 0x3e, 0x37, 0xe9, 0x80, 0xbe, 0xdd, 0xf6, 0x0a, 0xbe,
  0xe4, 0x78, 0xbb, 0x3d, 0x15, 0x19, 0x13, 0x3e, 0xc1, 0xcd, 0xab, 0x3d,
  0x2f, 0x0a, 0x4b, 0xbe, 0x2e, 0xca, 0x33, 0x3e, 0xa2, 0xd5, 0x35, 0x3d,
  0x50, 0xe5, 0x33, 0xbb, 0x99, 0xab, 0x6e, 0x3d, 0x71, 0xfb, 0x77, 0x3e,
  0xde, 0xf0, 0x59, 0x3d, 0xbb, 0x8a, 0xfd, 0xbd, 0x22, 0xe6, 0x64, 0xbe,
  0xf7, 0xbe, 0x89, 0xbd, 0xa1, 0x28, 0x32, 0x3e, 0xe1, 0x39, 0x3f, 0x3c,
  0x45, 0xf4, 0x2d, 0xbe, 0x51, 0xb6, 0x60, 0xbd, 0x7a, 0x9a, 0x45, 0x3c,
  0x2f, 0x6a, 0x2d, 0xbd, 0x0a, 0xdb, 0x66, 0xbe, 0x78, 0x58, 0xa1, 0x3d,
  0x51, 0x03, 0x39, 0xbd, 0x62, 0xa0, 0x81, 0x3e, 0x55, 0x1d, 0x19, 0x3e,
  0x3b, 0xac, 0x87, 0x3d, 0x02, 0xee, 0x59, 0xbd, 0x9a, 0xd5, 0x24, 0xbc,
  0x56, 0xaf, 0x88, 0xbd, 0xc7, 0x22, 0x0c, 0xbd, 0x9f, 0x75, 0x31, 0x3e,
  0x83, 0xff, 0x48, 0xbe, 0x7a, 0x37, 0x5a, 0xbe, 0xa2, 0x00, 0x2b, 0x3e,
  0x51, 0x0a, 0xea, 0xbc, 0x6f, 0xe1, 0xba, 0xbd, 0x25, 0xdb, 0xc8, 0xbd,
  0x8f, 0x78, 0x80, 0x3e, 0x91, 0x7a, 0x9a, 0x3e, 0xbf, 0x1f, 0x63, 0x3d,
  0xe9, 0x0d, 0x6c, 0xbd, 0x94, 0x80, 0x11, 0x3e, 0xa8, 0xe2, 0x2d, 0x3d,
  0x10, 0x60, 0x25, 0xbe, 0x16, 0x58, 0xcc, 0xbc, 0x6a, 0x81, 0x6a, 0xbe,
  0xfd, 0x35, 0x1e, 0x3e, 0x7a, 0x00, 0x08, 0xbe, 0x87, 0xb0, 0x96, 0xbd,
  0x0b, 0x84, 0x19, 0x3e, 0x56, 0x3b, 0x9d, 0x3d, 0x58, 0x58, 0x05, 0xbe,
  0xbc, 0x93, 0xd0, 0xbd, 0x10, 0xb8, 0x42, 0x3e, 0xe0, 0xd3, 0xac, 0xbe,
  0xec, 0xb7, 0xba, 0x3d, 0x21, 0x1e, 0xa2, 0xbd, 0x65, 0x05, 0x1e, 0x3d,
  0x21, 0x01, 0xf8, 0xbc, 0x3a, 0x80, 0x24, 0x3e, 0x52, 0x58, 0xd2, 0x3c,
  0xa7, 0x44, 0xf1, 0x3d, 0x0d, 0x28, 0xaa, 0xbc, 0x98, 0x6b, 0x4e, 0x3b,
  0x6f, 0x55, 0x55, 0x3e, 0xb1, 0x22, 0xc8, 0xbd, 0xd0, 0x36, 0xad, 0x3d,
  0xdc, 0x69, 0x56, 0xbe, 0x96, 0xfc, 0x04, 0xbe, 0x50, 0xed, 0x1b, 0xbe,
  0xe0, 0xe5, 0x68, 0xbb, 0x15, 0x8c, 0x44, 0x3e, 0x47, 0x4e, 0x7f, 0x3e,
  0x00, 0x08, 0x06, 0xbe, 0x85, 0xbd, 0x25, 0x3e, 0xd4, 0x09, 0xaf, 0xbd,
  0x04, 0x88, 0x94, 0x3e, 0xa8, 0xa6, 0x56, 0xbe, 0xfe, 0xa5, 0xa2, 0xbd,
  0x6d, 0x00, 0x2d, 0x3d, 0x3c, 0x2f, 0x73, 0x3e, 0xe0, 0x32, 0xa6, 0xbd,
  0x99, 0xfc, 0xd9, 0x3d, 0xb4, 0x20, 0x3b, 0x3e, 0x15, 0x7f, 0xac, 0x3d,
  0x3f, 0x69, 0x2a, 0x3e, 0x8a, 0xe8, 0x5a, 0xbd, 0x74, 0xfe, 0xe8, 0x3d,
  0x7a, 0xad, 0x5f, 0xbd, 0x44, 0x86, 0x37, 0x3d, 0xb6, 0xb8, 0x51, 0xbe,
  0x47, 0xca, 0x26, 0x3d, 0xd4, 0x14, 0xe5, 0x3d, 0x59, 0xca, 0x39, 0x3e,
  0x8f, 0x79, 0x09, 0x3e, 0xb6, 0x9e, 0x61, 0xbc, 0x61, 0x42, 0x89, 0xbb,
  0xb0, 0xb1, 0x8c, 0xbd, 0xe7, 0xa3, 0x69, 0x3d, 0xb3, 0x76, 0xa6, 0xbd,
  0x16, 0x4e, 0x47, 0xbe, 0x27, 0xb1, 0x61, 0x3e, 0xf2, 0x09, 0x86, 0xbd,
  0xf8, 0x1b, 0xfa, 0x3c, 0xa5, 0x82, 0x6c, 0x3e, 0xeb, 0xad, 0xbf, 0xbc,
  0xd1, 0xa0, 0x77, 0x3e, 0xa2, 0x6e, 0x1c, 0x3d, 0x19, 0xd9, 0x52, 0x3e,
  0x28, 0x9c, 0x1f, 0xbd, 0xa7, 0x33, 0x83, 0x3e, 0x2e, 0x18, 0xcc, 0xbd,
  0x96, 0x0a, 0x46, 0xbe, 0x90, 0xb2, 0x01, 0xbe, 0x2f, 0x94, 0x8d, 0x3e,
  0xda, 0xda, 0x02, 0x3d, 0xaf, 0x44, 0x5c, 0x3e, 0x2c, 0x8b, 0x29, 0x3e,
  0x94, 0x4d, 0x8c, 0xbe, 0xc4, 0x0c, 0xab, 0xbd, 0x92, 0x7f, 0x40, 0x3e,
  0x6a, 0x6d, 0x86, 0xbd, 0xc1, 0xb8, 0x49, 0x3e, 0x06, 0xc3, 0x0a, 0x3e,
  0x38, 0xfd, 0x8d, 0x3d, 0x6a, 0xb5, 0x77, 0x3c, 0xb4, 0xe4, 0x14, 0x3e,
  0x0f, 0xdb, 0x0c, 0xbd, 0x75, 0xd7, 0x82, 0x3e, 0x0b, 0x75, 0x92, 0xbe,
  0xab, 0x66, 0x03, 0xbe, 0xe8, 0x9a, 0x8d, 0xbc, 0x4f, 0x3d, 0x31, 0xbd,
  0x88, 0x57, 0x1f, 0xbe, 0xe8, 0x62, 0x4e, 0xbe, 0xa5, 0xfa, 0x97, 0xbd,
  0x00, 0x1d, 0x76, 0x3e, 0x9c, 0x36, 0x3c, 0xbe, 0x41, 0x7d, 0xbc, 0x3d,
  0x22, 0xf3, 0x7b, 0x3e, 0x20, 0x73, 0x60, 0x3d, 0x94, 0x51, 0x5f, 0x3c,
  0x01, 0xb2, 0xdb, 0xbc, 0xa1, 0x8a, 0x3b, 0x3e, 0x0c, 0x0b, 0x1e, 0xbd,
  0x96, 0x6c, 0x90, 0xbc, 0xff, 0x3a, 0xee, 0xbd, 0x0d, 0x43, 0x65, 0x3e,
  0x8b, 0xea, 0x80, 0xbd, 0x81, 0x66, 0x67, 0x3d, 0x6a, 0xa6, 0xc1, 0x3d,
  0x5b, 0xa1, 0x6f, 0xbe, 0x2d, 0xe5, 0xa9, 0x3d, 0xda, 0x3a, 0x58, 0x3e,
  0xee, 0xd6, 0xf4, 0xbd, 0x23, 0x26, 0x6c, 0xbd, 0x7d, 0xfe, 0x87, 0x3d,
  0x66, 0x82, 0x51, 0xbd, 0x25, 0x53, 0xb0, 0x3d, 0xdd, 0x4e, 0x89, 0x3e,
  0xc6, 0x84, 0x03, 0xbe, 0x67, 0x96, 0x58, 0x3e, 0xb9, 0x37, 0x9b, 0x3c,
  0x2e, 0x84, 0x18, 0x3e, 0x10, 0x16, 0x2b, 0xbe, 0x30, 0x8a, 0x3f, 0xbd,
  0xff, 0x67, 0x5c, 0xbe, 0xe0, 0x76, 0x83, 0xbd, 0xef, 0xf0, 0x0d, 0x3e,
  0x5b, 0xe4, 0x19, 0x3e, 0x2b, 0x92, 0x0c, 0xbe, 0x7a, 0xb1, 0x1c, 0x3e,
  0xbd, 0xd1, 0x66, 0x3e, 0x87, 0x9e, 0x35, 0x3e, 0x6d, 0x7c, 0x51, 0x3e,
  0xa3, 0x68, 0xf3, 0x3d, 0x91, 0x8b, 0x9e, 0xbd, 0xc8, 0xe0, 0x58, 0xba,
  0x96, 0x91, 0xfb, 0xbd, 0x5a, 0x21, 0x30, 0x3e, 0x7f, 0xdf, 0x3e, 0xbe,
  0xc4, 0x5f, 0x83, 0x3e, 0x8b, 0xa7, 0x03, 0x3d, 0x33, 0x58, 0x9d, 0xbd,
  0xfa, 0xe7, 0x4a, 0x3e, 0x5a, 0xc9, 0x3d, 0xbe, 0xe7, 0x2d, 0x1e, 0x3e,
  0xdc, 0xe5, 0x5e, 0x3e, 0x8c, 0x21, 0xff, 0x3d, 0x02, 0x08, 0x50, 0x3d,
  0xb1, 0xfd, 0xf9, 0x3d, 0x04, 0x0f, 0xdc, 0x3d, 0xe8, 0xd0, 0x08, 0x3e,
  0xe6, 0xf4, 0x13, 0xbe, 0xf3, 0xcc, 0xda, 0xbc, 0xaf, 0x7b, 0x19, 0x3e,
  0x28, 0xb3, 0xb4, 0x3d, 0x7c, 0x14, 0x2e, 0x3e, 0xa3, 0x2c, 0x01, 0xbe,
  0x28, 0xf4, 0xe4, 0x3d, 0x71, 0x06, 0x3b, 0xbe, 0x56, 0x0f, 0x52, 0xbe,
  0x97, 0xbc, 0x3c, 0xbd, 0xe2, 0xd7, 0x63, 0xbe, 0xac, 0x92, 0x23, 0x3e,
  0x62, 0x14, 0x2d, 0x3e, 0xa3, 0xd2, 0x82, 0x3e, 0xe7, 0x90, 0x5c, 0x3d,
  0x13, 0xdc, 0x9b, 0x3c, 0x66, 0xc9, 0x80, 0x3e, 0xe5, 0x95, 0x98, 0xbe,
  0x4d, 0x8a, 0x2e, 0x3e, 0x39, 0xef, 0x6f, 0x3e, 0xd3, 0x30, 0xea, 0xbd,
  0xed, 0x78, 0x02, 0xbe, 0xd0, 0x72, 0x2f, 0xbe, 0xcb, 0x4d, 0x9c, 0xbe,
  0x88, 0xf8, 0x69, 0x3e, 0xa9, 0x06, 0xd6, 0xbd, 0x2a, 0x28, 0x83, 0x3d,
  0xba, 0xd1, 0x82, 0xbe, 0x7d, 0x78, 0x1a, 0x3e, 0xbb, 0xa4, 0x6a, 0x3d,
  0x59, 0x0a, 0xb1, 0xbd, 0x78, 0xed, 0x5f, 0x3e, 0x42, 0x3f, 0x13, 0xbe,
  0xdb, 0x2f, 0xc4, 0x3c, 0x6d, 0x33, 0x82, 0xbe, 0xe1, 0xee, 0x60, 0xbd,
  0x29, 0x2b, 0x96, 0x3d, 0x09, 0x86, 0xc2, 0xbd, 0x4f, 0x90, 0x1b, 0x3e,
  0x03, 0xb0, 0x7c, 0x3e, 0x8d, 0x69, 0x86, 0xbd, 0x70, 0x00, 0x08, 0x3e,
  0xa8, 0x9d, 0x67, 0xbe, 0x97, 0x02, 0x67, 0xbe, 0x39, 0x86, 0xa6, 0xbd,
  0x82, 0xd6, 0x97, 0xbd, 0x61, 0x75, 0xce, 0x3d, 0x9d, 0xa4, 0x54, 0xbe,
  0xd5, 0x7d, 0x2e, 0x3c, 0xf3, 0xf8, 0x63, 0x3d, 0x2d, 0x6c, 0xba, 0xbb,
  0x90, 0xf3, 0xa3, 0xbd, 0x4e, 0x61, 0x1b, 0xbe, 0xc3, 0xaa, 0x7a, 0xbe,
  0x16, 0x65, 0x05, 0xbe, 0x80, 0xaf, 0x34, 0x3e, 0x6e, 0xa3, 0x18, 0x3e,
  0x2c, 0xf0, 0x25, 0xbe, 0x18, 0x95, 0xd2, 0xbd, 0xdd, 0x0d, 0x85, 0x3e,
  0x92, 0x2a, 0x00, 0xbe, 0xf7, 0xfc, 0x87, 0x3d, 0x56, 0x09, 0x1b, 0x3b,
  0xb6, 0xae, 0xf8, 0xbd, 0x3d, 0x33, 0x3b, 0xbe, 0x7a, 0x94, 0xb7, 0xba,
  0x80, 0x7f, 0x0b, 0x3e, 0x6e, 0x27, 0x0e, 0x3e, 0xf3, 0x2b, 0xec, 0xbd,
  0x8d, 0x6f, 0x87, 0xbe, 0xb8, 0x89, 0x8f, 0xbe, 0x85, 0x8b, 0x89, 0xbe,
  0x5e, 0xab, 0x65, 0x3e, 0x0d, 0x70, 0x38, 0x3e, 0xd3, 0x53, 0xc4, 0x3b,
  0x89, 0x67, 0x3f, 0xbe, 0x4a, 0x7e, 0xd5, 0xbc, 0x31, 0xde, 0x00, 0x3d,
  0x53, 0x23, 0x45, 0x3e, 0x8e, 0xd4, 0xe8, 0x3c, 0x1c, 0x8e, 0x16, 0xbd,
  0x5d, 0x9e, 0x02, 0xbe, 0x34, 0x1f, 0x6d, 0x3d, 0x3e, 0x18, 0x3b, 0xbc,
  0x85, 0x7c, 0x8b, 0x3e, 0xd8, 0xac, 0x9a, 0x3d, 0xfe, 0xfa, 0x78, 0xbe,
  0xcc, 0xbb, 0xd3, 0x3c, 0xb7, 0x66, 0x88, 0x3e, 0x3f, 0x46, 0xa3, 0xbd,
  0x48, 0xc5, 0x6d, 0x3e, 0xed, 0x10, 0x36, 0x3a, 0xeb, 0x98, 0x78, 0x3e,
  0x9b, 0x15, 0x98, 0x3c, 0xe2, 0xf3, 0x2a, 0x3d, 0x69, 0x50, 0xde, 0x3d,
  0x31, 0x56, 0xe4, 0x3d, 0xf3, 0xe7, 0x48, 0xbe, 0xd4, 0xc4, 0x0f, 0xbe,
  0xc7, 0xf0, 0x2a, 0xbe, 0x20, 0xd4, 0x08, 0x3e, 0x28, 0x80, 0x0a, 0x3d,
  0x81, 0x45, 0x7a, 0x3e, 0xd6, 0x83, 0x37, 0x3e, 0xd9, 0x9c, 0x80, 0x3e,
  0x14, 0x43, 0x4e, 0x3e, 0xf9, 0xa3, 0x30, 0xbe, 0x2e, 0xa6, 0xeb, 0xbb,
  0x32, 0x48, 0xc0, 0x3d, 0x7c, 0x3b, 0x5f, 0x3e, 0x20, 0xca, 0x09, 0x3e,
  0xf7, 0xc0, 0xbd, 0x3d, 0x6b, 0xef, 0x36, 0xbe, 0x87, 0x15, 0x1b, 0xbe,
  0x2d, 0x36, 0x7c, 0x3e, 0x66, 0x82, 0x46, 0xbe, 0xd1, 0x46, 0xae, 0x3d,
  0x85, 0xa9, 0x26, 0x3e, 0xa8, 0x7c, 0x2d, 0xbe, 0x37, 0x8a, 0x2a, 0xbd,
  0x31, 0x1f, 0x38, 0x3d, 0x04, 0xbe, 0x26, 0xbe, 0xe9, 0x15, 0x30, 0x3e,
  0x85, 0x8b, 0xf6, 0x3d, 0x2b, 0xb9, 0xe4, 0x3d, 0xed, 0x39, 0x3b, 0xbe,
  0x7e, 0xc7, 0x87, 0xbd, 0x41, 0xd2, 0x89, 0xbd, 0x4e, 0x30, 0xef, 0xbd,
  0x3d, 0x37, 0xa7, 0x3d, 0xf6, 0x21, 0x1d, 0x3e, 0xf4, 0xbc, 0xf0, 0x3d,
  0xfc, 0x0b, 0x35, 0x3e, 0xd0, 0xed, 0xe1, 0x3d, 0xb8, 0xed, 0x3d, 0xbd,
  0xde, 0x21, 0x19, 0xbe, 0x20, 0xab, 0xbb, 0xbd, 0x03, 0xb5, 0xc4, 0xbd,
  0x3a, 0x18, 0x06, 0xbd, 0xf5, 0x3f, 0x72, 0xbc, 0x59, 0x10, 0x4d, 0x3e,
  0x97, 0xd3, 0xbd, 0x3d, 0x10, 0xb5, 0x1a, 0x3c, 0x4f, 0x26, 0x5d, 0xbd,
  0x93, 0x96, 0xa8, 0xbd, 0x2c, 0x88, 0xe4, 0x3d, 0x31, 0x80, 0x1f, 0x3b,
  0x41, 0xae, 0x94, 0xbd, 0xda, 0x47, 0x37, 0xbe, 0x89, 0xc6, 0xe5, 0x3d,
  0xeb, 0x71, 0xb7, 0xbb, 0xd9, 0x2c, 0x42, 0x3e, 0x2a, 0x67, 0x9f, 0xbd,
  0x97, 0xc0, 0x97, 0xbe, 0x25, 0x27, 0xf1, 0xbd, 0x2e, 0x91, 0xf8, 0x3d,
  0x95, 0x3d, 0xd1, 0x3d, 0x5c, 0x94, 0xea, 0xbd, 0xb6, 0xc0, 0x2e, 0x3e,
  0xc6, 0x31, 0x86, 0xbd, 0x80, 0x8a, 0x40, 0x3e, 0xdd, 0xb1, 0x58, 0xbd,
  0xa3, 0x8c, 0xc4, 0xbd, 0xe6, 0x86, 0x84, 0xbe, 0xec, 0xe6, 0x8c, 0xbe,
  0x3a, 0xe7, 0x46, 0xbe, 0x4b, 0x3a, 0x84, 0x3d, 0xc5, 0xc5, 0x83, 0x3e,
  0xcf, 0xe6, 0xce, 0x3d, 0x2f, 0x25, 0x37, 0x3d, 0xd2, 0x60, 0xf8, 0x3d,
  0x76, 0x41, 0xa1, 0x3d, 0x6c, 0xd3, 0x60, 0x3e, 0x57, 0xe0, 0x6d, 0xbe,
  0x3f, 0x4e, 0x85, 0xbd, 0xfb, 0xb0, 0xd2, 0x3d, 0x16, 0xf7, 0x0d, 0xbe,
  0x50, 0x02, 0x45, 0xbe, 0x9d, 0x5f, 0x09, 0x3e, 0x09, 0x01, 0x93, 0x3c,
  0x85, 0xaa, 0x0c, 0x3e, 0x4b, 0x66, 0x80, 0x3e, 0xf5, 0x41, 0x8b, 0x3e,
  0x36, 0xce, 0x4c, 0xbe, 0x44, 0xac, 0x3d, 0x3e, 0x46, 0x77, 0x06, 0x3e,
  0x93, 0xb9, 0xf5, 0x3d, 0x09, 0x4d, 0x3a, 0xbe, 0x29, 0xd4, 0xb0, 0x3d,
  0x35, 0xda, 0x99, 0xbd, 0x9a, 0x48, 0x82, 0x3e, 0x20, 0x1d, 0x39, 0x3e,
  0xd7, 0x66, 0x6a, 0x3e, 0xee, 0xe9, 0xd0, 0x3d, 0x42, 0x4f, 0xbc, 0xb9,
  0x77, 0xbf, 0x8b, 0x3e, 0x5a, 0x82, 0x1a, 0x3e, 0x0c, 0x36, 0x1d, 0x3e,
  0xde, 0xba, 0x07, 0xbe, 0xbb, 0x2d, 0x01, 0x3d, 0x6b, 0x1a, 0x1a, 0xbd,
  0xdb, 0xea, 0x51, 0x3d, 0xc2, 0x75, 0x0f, 0xbe, 0xad, 0xac, 0x93, 0x3d,
  0x20, 0xd7, 0x43, 0xbe, 0x88, 0xbb, 0x7c, 0x3d, 0x0c, 0x00, 0x02, 0x3e,
  0x34, 0x63, 0xd8, 0xbd, 0xdd, 0x44, 0x0e, 0x3d, 0xad, 0xf0, 0x29, 0x3e,
  0x5f, 0xb6, 0x46, 0xbe, 0x08, 0x67, 0xcf, 0x3d, 0x96, 0xac, 0x80, 0x3e,
  0xd0, 0x05, 0x86, 0x3e, 0xc1, 0xd4, 0x38, 0x3e, 0x24, 0x19, 0x4c, 0xbd,
  0x32, 0xbf, 0x51, 0xbe, 0x1f, 0x43, 0xd1, 0x3c, 0x84, 0x92, 0x20, 0xbe,
  0xe1, 0x88, 0x21, 0x3e, 0x58, 0x75, 0x82, 0xbe, 0x9a, 0xf8, 0x60, 0xbe,
  0xe8, 0x60, 0xf8, 0xbc, 0x53, 0x45, 0x38, 0x3e, 0xdb, 0x7c, 0x69, 0xbe,
  0xa0, 0x98, 0xea, 0xbd, 0xe9, 0xbe, 0xca, 0xbd, 0xbd, 0xf8, 0xec, 0xbd,
  0xf2, 0x20, 0x5b, 0x3e, 0xf2, 0x5d, 0xaa, 0x3d, 0x88, 0x3c, 0xf1, 0x3d,
  0x4e, 0xc7, 0x8d, 0xbd, 0xc5, 0xe6, 0x47, 0x3d, 0x18, 0x8d, 0x7d, 0xbe,
  0xa2, 0x11, 0x88, 0xbd, 0x88, 0x6a, 0x75, 0x3d, 0xf9, 0x7f, 0xd1, 0x3c,
  0x85, 0x40, 0x00, 0x3d, 0x5c, 0x35, 0xd7, 0x3d, 0x2f, 0x3f, 0x01, 0xbe,
  0xca, 0x74, 0xaa, 0x3c, 0xfb, 0xe3, 0xb0, 0xbd, 0x49, 0xfc, 0x52, 0x3e,
  0x74, 0x80, 0x67, 0x3e, 0xf6, 0xdb, 0x00, 0x3e, 0x57, 0xbe, 0x41, 0x3e,
  0x34, 0x99, 0x7e, 0xbe, 0x9c, 0x09, 0x02, 0xbd, 0x05, 0xe3, 0x45, 0xbe,
  0x56, 0x67, 0xa3, 0xbd, 0xe4, 0x4e, 0x7d, 0x3e, 0x47, 0xbb, 0x5f, 0x3d,
  0x6a, 0x8c, 0x1f, 0xbe, 0xe0, 0x7c, 0x4d, 0xbe, 0xf6, 0x44, 0x94, 0x3e,
  0xf9, 0x25, 0x94, 0x3d, 0x31, 0x14, 0xb2, 0xbd, 0x30, 0x66, 0xe2, 0xbc,
  0x23, 0x14, 0x58, 0xbe, 0xf6, 0xb2, 0x9c, 0x3c, 0x0f, 0x3c, 0x42, 0xbe,
  0xcc, 0xc1, 0xec, 0x3d, 0xa6, 0x4e, 0x40, 0xbd, 0x06, 0x6e, 0x6a, 0x3e,
  0x8b, 0x5c, 0x63, 0xbd, 0x1c, 0xc4, 0xb4, 0xbd, 0x3d, 0xd8, 0x68, 0xbd,
  0x73, 0xce, 0x8c, 0xbd, 0x08, 0x62, 0x8e, 0xbe, 0xc5, 0x86, 0x6f, 0xbe,
  0xa7, 0xb6, 0x31, 0x3d, 0xe8, 0xfe, 0x0b, 0xbe, 0xd8, 0x05, 0x74, 0x3e,
  0x6a, 0x06, 0x91, 0x3d, 0xc8, 0x67, 0x82, 0xbc, 0x1d, 0x74, 0x61, 0xbe,
  0xcd, 0xeb, 0x04, 0x3e, 0x09, 0x6a, 0x3d, 0x3e, 0x93, 0xed, 0x36, 0x3e,
  0x6c, 0x1c, 0x90, 0xbc, 0x2f, 0x28, 0x78, 0x3e, 0x5a, 0x35, 0xf2, 0x3d,
  0x05, 0x7a, 0x8b, 0xbd, 0x29, 0x57, 0x19, 0x3c, 0x16, 0xed, 0x05, 0xbe,
  0x7e, 0x83, 0x30, 0xbe, 0x60, 0x8d, 0x43, 0xbe, 0xba, 0x65, 0x27, 0x3e,
  0xe7, 0x54, 0xea, 0x3d, 0xfd, 0x33, 0xa0, 0x3d, 0x9b, 0x82, 0xd6, 0x3d,
  0x10, 0xbd, 0x69, 0xbe, 0x03, 0x88, 0xb1, 0xbc, 0xac, 0x17, 0xdd, 0x3c,
  0x36, 0xb2, 0x65, 0x3e, 0xbc, 0xfe, 0x7c, 0x3d, 0xb6, 0x5a, 0x46, 0xbd,
  0x67, 0xc7, 0xaa, 0xbd, 0xbf, 0x54, 0x5e, 0xbe, 0x94, 0x92, 0xe2, 0x3d,
  0xb6, 0x75, 0x76, 0x3e, 0x14, 0xec, 0x7d, 0xbd, 0x61, 0xb8, 0xb6, 0x3d,
  0x14, 0x67, 0x15, 0x3e, 0x7d, 0x01, 0xc7, 0xbc, 0x25, 0x70, 0x47, 0x3e,
  0xdf, 0x9e, 0x69, 0xbe, 0x4d, 0x78, 0x72, 0xbe, 0xec, 0xec, 0x83, 0xbe,
  0x90, 0xa4, 0x2a, 0x3e, 0x05, 0x36, 0x1d, 0x3e, 0x95, 0x9e, 0xef, 0x3d,
  0x2a, 0x8c, 0x31, 0xbd, 0xe9, 0xc5, 0x24, 0x3e, 0xde, 0x0a, 0x45, 0x3e,
  0x76, 0xc0, 0x9f, 0xbe, 0x6b, 0x96, 0xfd, 0x3d, 0x84, 0x1a, 0x07, 0xbe,
  0x75, 0xa8, 0x71, 0x3d, 0x70, 0x8f, 0x60, 0xbc, 0xc1, 0x28, 0x85, 0xbd,
  0x2f, 0xe5, 0x76, 0x3d, 0xde, 0x70, 0xf7, 0x3d, 0x82, 0xc4, 0x7e, 0x3e,
  0x48, 0xa4, 0xb7, 0x3d, 0xd9, 0xa8, 0x07, 0xbe, 0x94, 0x01, 0x97, 0x3d,
  0x64, 0x15, 0x0c, 0x3e, 0x27, 0xec, 0x2b, 0xbe, 0x4a, 0x2a, 0x87, 0xbd,
  0x87, 0xf1, 0xac, 0x3d, 0xad, 0x45, 0x8c, 0xbe, 0x46, 0x72, 0xe6, 0x3d,
  0xf9, 0xe0, 0x49, 0x3e, 0x55, 0x17, 0x44, 0xbe, 0x2d, 0xdd, 0xe7, 0xbd,
  0x22, 0xa5, 0x26, 0x3e, 0x89, 0x0d, 0x0a, 0xbe, 0xe3, 0x9b, 0xda, 0x3d,
  0x24, 0x4c, 0x01, 0xbe, 0x67, 0x3d, 0x71, 0xbe, 0x21, 0xba, 0x7f, 0x3d,
  0xaa, 0x6f, 0x07, 0xbd, 0x96, 0x04, 0x51, 0x3e, 0x14, 0x80, 0xf0, 0xbd,
  0x64, 0xa9, 0xb1, 0xbe, 0x4c, 0x0c, 0xdb, 0xbd, 0x9a, 0x09, 0xa4, 0xbd,
  0x2b, 0xec, 0xd9, 0x3b, 0x4f, 0x00, 0xff, 0xbd, 0x22, 0x18, 0xe4, 0xbc,
  0x46, 0xe3, 0x23, 0x3e, 0x99, 0xf8, 0x26, 0xbe, 0xfd, 0x3d, 0x79, 0xbe,
  0x82, 0xf9, 0x7e, 0x3d, 0x3e, 0x66, 0x67, 0xbe, 0xef, 0xef, 0x01, 0xbc,
  0xe5, 0x92, 0x00, 0xbd, 0x96, 0x3b, 0xef, 0x3d, 0xe8, 0x2f, 0xac, 0xbd,
  0x9d, 0xe8, 0x08, 0x3e, 0x53, 0x3f, 0x44, 0x3e, 0x85, 0x96, 0x42, 0x3b,
  0x79, 0xfe, 0x61, 0xba, 0xd7, 0x49, 0x10, 0xbe, 0xcb, 0x99, 0x8c, 0xbd,
  0x93, 0x09, 0x07, 0xbe, 0xa3, 0xb9, 0xbb, 0x3d, 0x26, 0xf2, 0x2a, 0xbd,
  0x2c, 0x12, 0xfb, 0xbd, 0xaf, 0x43, 0x94, 0xbd, 0x47, 0xf4, 0x31, 0x3e,
  0xf0, 0x57, 0xa6, 0x3c, 0x72, 0xba, 0x11, 0xbd, 0xf8, 0x37, 0xe9, 0x3d,
  0xc3, 0xb9, 0x5d, 0x3e, 0x21, 0x70, 0x2c, 0x3e, 0xb3, 0x74, 0x19, 0xbd,
  0x75, 0xb8, 0xec, 0xbd, 0x98, 0x1d, 0x0c, 0xbe, 0x6e, 0x6a, 0x2d, 0x3e,
  0xd7, 0x8b, 0xb8, 0x3c, 0xc6, 0xa2, 0x1b, 0x3e, 0x77, 0xc9, 0x07, 0x3e,
  0xa7, 0x18, 0x32, 0xbe, 0xd3, 0x0a, 0x54, 0xbe, 0x3b, 0xaf, 0x2f, 0x3e,
  0xb7, 0x07, 0x87, 0x3d, 0xec, 0x44, 0x82, 0x3d, 0x87, 0xbf, 0x4c, 0x3e,
  0x6a, 0xec, 0x10, 0xbe, 0x68, 0xee, 0x17, 0xbe, 0x32, 0xd7, 0xa0, 0xbd,
  0x1d, 0xfd, 0x4b, 0x3d, 0x52, 0xba, 0x2d, 0x3e, 0x13, 0xad, 0xa8, 0x3d,
  0xd5, 0x19, 0xed, 0xbd, 0xed, 0xc9, 0x0e, 0xbe, 0x97, 0xdc, 0xdb, 0x3d,
  0xef, 0x1c, 0x51, 0x3c, 0x64, 0xeb, 0xb3, 0xbc, 0xce, 0x78, 0x76, 0xbc,
  0x3a, 0x5a, 0xa8, 0x3d, 0x12, 0x08, 0x18, 0xbe, 0xee, 0xbb, 0x55, 0xbe,
  0x0d, 0xe6, 0x48, 0xbe, 0x3e, 0x7e, 0x90, 0xbd, 0x21, 0x8b, 0x27, 0xbe,
  0x3d, 0xa9, 0x9b, 0xbd, 0x1e, 0x05, 0x3b, 0xbe, 0xa2, 0x1e, 0x3c, 0xbe,
  0x4e, 0xbe, 0x49, 0x3e, 0x42, 0x4b, 0x4a, 0x3e, 0x8a, 0xcc, 0x08, 0xbe,
  0xe2, 0x73, 0xc0, 0x3c, 0xf5, 0xae, 0x9f, 0xbd, 0xe4, 0xca, 0x38, 0x3e,
  0x0d, 0x58, 0xb4, 0xbc, 0xcc, 0xc3, 0x3e, 0xbc, 0x8d, 0x63, 0x97, 0xbd,
  0x66, 0xad, 0x91, 0x3d, 0xf6, 0x7d, 0x2a, 0xbe, 0x6d, 0x7d, 0x38, 0x3d,
  0x58, 0xf7, 0xc1, 0xbd, 0x2d, 0xf3, 0x86, 0xbe, 0xb6, 0x01, 0x31, 0x3e,
  0x0a, 0xe7, 0xe5, 0xbd, 0x54, 0x82, 0xac, 0xbd, 0xca, 0x61, 0x2f, 0x3e,
  0x02, 0x0f, 0x09, 0xbd, 0xf5, 0x3d, 0x84, 0x3d, 0xb6, 0x44, 0x8d, 0xbe,
  0xc9, 0x91, 0x70, 0x3d, 0xa3, 0x07, 0x66, 0x3e, 0x56, 0x43, 0x0b, 0x3e,
  0xc3, 0xdd, 0xc1, 0xbd, 0xfe, 0x15, 0xc2, 0x3d, 0xca, 0xc8, 0x6b, 0x3d,
  0x43, 0xca, 0xbc, 0xbc, 0xd9, 0xe9, 0x08, 0x3e, 0xeb, 0x9f, 0x1d, 0x3c,
  0xc1, 0x68, 0x58, 0xbe, 0x89, 0x2b, 0x17, 0x3e, 0x32, 0xf8, 0x42, 0x3e,
  0xa7, 0xb0, 0x8b, 0xbd, 0x31, 0x13, 0x82, 0x3d, 0xd1, 0x21, 0x46, 0x3e,
  0x6a, 0xed, 0x3c, 0xbd, 0x82, 0xd5, 0x47, 0xbe, 0xe4, 0x5a, 0x4f, 0xbd,
  0x64, 0xd1, 0x2f, 0x3e, 0x72, 0x9d, 0x72, 0x3d, 0x1f, 0x27, 0x5b, 0x3e,
  0x3d, 0x81, 0x45, 0xbe, 0x4f, 0x9b, 0xe7, 0xbb, 0xce, 0xf7, 0xbb, 0xbd,
  0xfd, 0x03, 0xa7, 0x3d, 0x75, 0xf8, 0x11, 0x3e, 0x16, 0xc0, 0x0b, 0xbe,
  0x9a, 0x16, 0x37, 0xbd, 0x3f, 0x3f, 0x99, 0xbd, 0xdd, 0x6f, 0x46, 0xbd,
  0xf2, 0xc9, 0x60, 0xbe, 0x85, 0xfd, 0x8d, 0x3c, 0x08, 0xc3, 0x80, 0x3e,
  0x18, 0xa9, 0x97, 0xbe, 0x8c, 0x7d, 0x27, 0x3e, 0x40, 0xa5, 0x30, 0x3e,
  0xb8, 0xf0, 0x24, 0x3e, 0x37, 0x81, 0x53, 0x3c, 0x7d, 0xc2, 0x0c, 0xbe,
  0xbd, 0x35, 0x49, 0x3c, 0x47, 0x24, 0xe5, 0xbd, 0x0a, 0xf7, 0x3e, 0x3e,
  0xbf, 0x43, 0x12, 0xbe, 0x46, 0xa4, 0x15, 0xbe, 0xcd, 0xb2, 0xec, 0xbd,
  0x95, 0x0e, 0xa3, 0x3d, 0xf0, 0x19, 0x50, 0x3e, 0x0e, 0x61, 0x8b, 0xbd,
  0xc5, 0xca, 0x13, 0x3b, 0xf1, 0x3d, 0x88, 0xbe, 0xbf, 0x6c, 0x49, 0xbe,
  0x1d, 0xbe, 0xa4, 0x3e, 0x23, 0xfd, 0x3e, 0x3e, 0x79, 0xb2, 0x60, 0xbd,
  0x91, 0x5e, 0xe7, 0xbd, 0xe6, 0xde, 0x24, 0x3e, 0x07, 0x41, 0xd9, 0xbd,
  0x7d, 0xd0, 0xa4, 0xbd, 0x06, 0xe9, 0xdd, 0x3d, 0xdd, 0x59, 0x57, 0x3d,
  0x98, 0x41, 0x03, 0x3e, 0x93, 0x64, 0x83, 0xbc, 0x90, 0xe3, 0x01, 0xbd,
  0x46, 0x6c, 0x20, 0x3e, 0xef, 0x23, 0x94, 0x3e, 0xf9, 0xd1, 0x0d, 0x3e,
  0xea, 0x9c, 0x29, 0xbe, 0xdf, 0xc6, 0x0c, 0x3e, 0x37, 0x6a, 0x08, 0xbd,
  0x73, 0xaa, 0x4d, 0xbd, 0x54, 0x14, 0x18, 0x3e, 0x4f, 0x03, 0xd5, 0xbb,
  0x32, 0x39, 0x0f, 0x3e, 0xe8, 0xdb, 0x34, 0x3e, 0x04, 0xf8, 0x09, 0x3e,
  0x29, 0x16, 0x15, 0xbd, 0x4f, 0x16, 0xc2, 0x3a, 0x53, 0x98, 0x3a, 0xbe,
  0x33, 0x5f, 0x81, 0xbe, 0x81, 0x25, 0x0a, 0xbe, 0x6a, 0x03, 0x34, 0xbe,
  0x2b, 0x31, 0x0a, 0xbe, 0x9b, 0x3c, 0x85, 0xbe, 0x2a, 0x3e, 0x71, 0x3e,
  0x5f, 0xc0, 0x6e, 0xbe, 0xf2, 0x2b, 0x25, 0xbe, 0xd5, 0xa4, 0x0e, 0x3e,
  0xf5, 0x05, 0x11, 0xbe, 0x79, 0xd3, 0x71, 0xbe, 0x70, 0xbf, 0x58, 0x3e,
  0xfa, 0x88, 0xb5, 0xbd, 0x31, 0x3f, 0x31, 0xbe, 0x42, 0xdf, 0x47, 0xbd,
  0x10, 0x7c, 0x1f, 0xbe, 0x74, 0xcc, 0x58, 0xbd, 0x1b, 0xb0, 0x16, 0x3e,
  0x9e, 0xe9, 0x35, 0x3e, 0xaf, 0x14, 0xfd, 0x3d, 0x3d, 0xfd, 0x43, 0xbc,
  0xdf, 0x7d, 0x1c, 0xbe, 0xae, 0x33, 0x9b, 0xbd, 0x33, 0x14, 0x34, 0x3e,
  0x6f, 0x3c, 0x5f, 0x3d, 0x93, 0x24, 0xf5, 0xbd, 0x1e, 0x15, 0x0b, 0x3e,
  0x17, 0x0f, 0x17, 0x3e, 0xeb, 0x78, 0x80, 0x3e, 0x6f, 0xf9, 0x35, 0xbb,
  0x5d, 0x90, 0xee, 0xbc, 0x3f, 0xe5, 0x84, 0x3c, 0x74, 0xf2, 0x84, 0x3e,
  0xd8, 0x27, 0x69, 0xbe, 0x16, 0x12, 0x46, 0xbe, 0x66, 0x43, 0xfc, 0xbc,
  0x39, 0x84, 0x70, 0xbe, 0x1e, 0x3d, 0xbf, 0x3d, 0x6a, 0x20, 0xb4, 0xbd,
  0x52, 0x1b, 0x0a, 0x3d, 0xc4, 0x90, 0xfc, 0x3c, 0x60, 0x62, 0x22, 0xbd,
  0x96, 0x96, 0xc3, 0x3d, 0x4d, 0xa1, 0x82, 0xbd, 0x9d, 0x06, 0x3c, 0x3e,
  0xda, 0x93, 0xac, 0x3d, 0xef, 0xa4, 0x65, 0xbe, 0x09, 0xd9, 0xa8, 0x3d,
  0xe5, 0xc1, 0x39, 0xbe, 0xea, 0x61, 0xdb, 0x3c, 0x4c, 0xa3, 0xe6, 0x3d,
  0x3a, 0x19, 0x6d, 0xbd, 0xc8, 0xad, 0xb5, 0x3d, 0xaf, 0x8b, 0x77, 0x3e,
  0x8f, 0xfb, 0x37, 0x3e, 0x49, 0x6e, 0x37, 0x3a, 0xd2, 0x97, 0x5d, 0xbe,
  0x36, 0xd3, 0x3f, 0xbd, 0x32, 0xac, 0xfa, 0xbc, 0x33, 0xf4, 0x75, 0xbe,
  0xda, 0xeb, 0x6b, 0x3d, 0x4c, 0x3e, 0x3b, 0xbd, 0x66, 0x48, 0x23, 0x3e,
  0xe7, 0x28, 0x4b, 0x3e, 0x99, 0x25, 0x9f, 0x3d, 0x52, 0x16, 0x6e, 0xbe,
  0x56, 0xaa, 0x7d, 0xbe, 0xb3, 0x30, 0x33, 0xbe, 0xa6, 0x84, 0xd3, 0xbd,
  0xaa, 0xef, 0x4f, 0xbe, 0x62, 0xcd, 0x23, 0xbe, 0xbd, 0x16, 0x50, 0x3e,
  0x8e, 0xa0, 0x2b, 0xbe, 0x36, 0xf7, 0x22, 0x3c, 0xce, 0x7a, 0x23, 0xbe,
  0xba, 0x2b, 0xe2, 0x3d, 0x53, 0x1a, 0x36, 0x3e, 0x75, 0x7c, 0x58, 0xbd,
  0xf6, 0xfe, 0x05, 0x3e, 0x24, 0xd7, 0x6c, 0x3e, 0xb3, 0xdd, 0x4d, 0x3e,
  0x46, 0xfa, 0xfa, 0xbd, 0x0e, 0xc5, 0xe0, 0xbd, 0xd4, 0x00, 0x5e, 0xbe,
  0xcc, 0xee, 0x32, 0x3e, 0x5b, 0xc9, 0x92, 0x3e, 0xe2, 0xc8, 0x3b, 0xbe,
  0x91, 0xb8, 0xae, 0x3d, 0xfc, 0xda, 0xa3, 0xbc, 0x40, 0x28, 0x43, 0x3e,
  0x13, 0x16, 0x94, 0xbd, 0xbf, 0xb6, 0x3d, 0x3e, 0x0f, 0x92, 0x1a, 0xbe,
  0x90, 0xdf, 0xcf, 0xbd, 0xa2, 0x98, 0x3b, 0xbd, 0x00, 0xed, 0x18, 0x3e,
  0xca, 0x93, 0xd2, 0xbd, 0x65, 0xab, 0xbf, 0x3d, 0x62, 0xc9, 0x97, 0xbe,
  0xef, 0x20, 0xb8, 0x3d, 0xbf, 0x2b, 0x1e, 0xbe, 0x26, 0xfa, 0x47, 0x3e,
  0xe7, 0x8f, 0xe3, 0x3d, 0x4b, 0x1e, 0x36, 0xbe, 0xc8, 0xe7, 0xd6, 0x3d,
  0xcc, 0xd5, 0x2b, 0x3e, 0x26, 0xa5, 0x26, 0xbe, 0x36, 0xeb, 0xa9, 0xbd,
  0xd0, 0x98, 0xed, 0xbd, 0xe0, 0xdc, 0x9e, 0xbd, 0x49, 0xd7, 0x4a, 0x3d,
  0xe1, 0x06, 0x0a, 0xbd, 0xab, 0xc7, 0x49, 0xbe, 0x9f, 0xb3, 0x27, 0x3e,
  0x83, 0x26, 0x6e, 0x3d, 0x94, 0xe2, 0xe2, 0x3d, 0x19, 0x52, 0x8e, 0xbd,
  0x3b, 0x9e, 0x61, 0x3d, 0x89, 0x5b, 0x47, 0x3d, 0x6d, 0x1e, 0x1b, 0x3e,
  0xf8, 0xff, 0x8b, 0xbe, 0xe1, 0xa0, 0xc3, 0xbd, 0x9b, 0xf1, 0x0d, 0x3e,
  0x94, 0x3c, 0xea, 0xbc, 0x87, 0xb2, 0x1e, 0xbc, 0x89, 0x43, 0x2c, 0xbe,
  0x2b, 0x2e, 0x09, 0xbe, 0x7c, 0xef, 0x52, 0xbe, 0xa8, 0x80, 0x4b, 0xbe,
  0x73, 0xba, 0x2f, 0x3d, 0x94, 0x0e, 0x83, 0x3b, 0xa7, 0x4a, 0x70, 0x3e,
  0x7a, 0xef, 0xe4, 0xbc, 0xa5, 0x67, 0x09, 0xbe, 0x94, 0x24, 0x3f, 0xbe,
  0xa8, 0x91, 0x8c, 0xbe, 0x93, 0x25, 0x05, 0xbe, 0xc7, 0x6c, 0x19, 0xbe,
  0x38, 0x48, 0x01, 0x3e, 0x5a, 0x16, 0xd0, 0xbd, 0x4f, 0x4c, 0x1b, 0x3e,
  0x85, 0x2e, 0x6e, 0x3e, 0x11, 0x8c, 0x89, 0xbd, 0x1f, 0xbd, 0xca, 0xbd,
  0xe3, 0x6e, 0x63, 0xbe, 0xcf, 0xb9, 0x8c, 0x3d, 0xf0, 0x4a, 0x56, 0xbd,
  0x90, 0xfd, 0x33, 0x3e, 0xf9, 0xd8, 0x52, 0x3d, 0x1a, 0x71, 0x57, 0xbe,
  0xd0, 0xad, 0x37, 0x3e, 0xb5, 0xb9, 0x2e, 0xbe, 0x94, 0x24, 0x4e, 0x3e,
  0xde, 0x3b, 0x3e, 0xbe, 0x5a, 0x81, 0x3b, 0xbe, 0xb3, 0x7d, 0x0e, 0x3e,
  0xee, 0x84, 0x27, 0xbe, 0xf8, 0x74, 0x70, 0xbd, 0x00, 0xd2, 0x93, 0xbd,
  0x04, 0x5d, 0x3c, 0xbd, 0x86, 0x3c, 0xf4, 0xbc, 0x1d, 0x9b, 0x82, 0xbd,
  0xf0, 0x88, 0xf3, 0x3d, 0x41, 0xf3, 0x48, 0x3e, 0x74, 0xcc, 0xfd, 0xbd,
  0x94, 0x1e, 0x4b, 0x3e, 0xbf, 0x02, 0x36, 0x3e, 0xed, 0x39, 0x82, 0xbd,
  0x29, 0x7f, 0xc6, 0xbd, 0xc2, 0x2b, 0x85, 0x3e, 0x3a, 0x8e, 0x14, 0xbe,
  0x03, 0xdc, 0xe9, 0xbd, 0xf9, 0x8c, 0x7b, 0xbd, 0x6c, 0x81, 0xf8, 0xbd,
  0x00, 0x23, 0xee, 0xbd, 0xf2, 0x29, 0xac, 0xbc, 0x40, 0x8a, 0x01, 0x3c,
  0x8e, 0xf1, 0xdc, 0xbd, 0x35, 0x19, 0x54, 0xbe, 0x0a, 0xb1, 0xc6, 0x3d,
  0xb7, 0x50, 0xf7, 0xbd, 0x75, 0x7a, 0x27, 0xbe, 0x75, 0x0d, 0xd0, 0x3d,
  0xad, 0x32, 0xb6, 0x3d, 0xbd, 0xbb, 0xe9, 0xbd, 0xd2, 0x44, 0xa4, 0xbd,
  0x27, 0x68, 0xed, 0xbc, 0x9a, 0x02, 0x43, 0x3e, 0x65, 0x87, 0x85, 0xbe,
  0xd3, 0xe4, 0xa5, 0x3e, 0x3c, 0x06, 0xa4, 0x3d, 0x1e, 0xa5, 0x79, 0x3e,
  0x7b, 0xd6, 0x7f, 0x3d, 0xb2, 0x3c, 0x50, 0x3e, 0xfa, 0xdf, 0x17, 0xbe,
  0x85, 0x0b, 0xd5, 0x3d, 0xe9, 0x92, 0x64, 0xb9, 0x43, 0x5e, 0x30, 0x3e,
  0x08, 0xb6, 0xf6, 0x3d, 0x4b, 0x84, 0x8e, 0x3d, 0x99, 0xb0, 0x05, 0xbd,
  0xb1, 0xbb, 0x0c, 0xba, 0xe4, 0x3a, 0x31, 0x3e, 0x6f, 0xe4, 0xbd, 0x3d,
  0xcc, 0x58, 0x8b, 0x3d, 0x87, 0x2d, 0x71, 0x3e, 0x19, 0xa5, 0xf6, 0xbc,
  0xc5, 0x2d, 0x3a, 0xbe, 0x00, 0xcd, 0x8b, 0x3d, 0x68, 0xaf, 0x8e, 0xbe,
  0xc2, 0xd1, 0x8f, 0x3c, 0x9c, 0x2d, 0x82, 0xbe, 0x0c, 0x49, 0x40, 0xbe,
  0x96, 0xf6, 0xc4, 0xbc, 0xee, 0x36, 0x64, 0xbd, 0x95, 0xe2, 0xb1, 0x3c,
  0x46, 0xcc, 0xd8, 0x3c, 0x3d, 0xed, 0x01, 0xbe, 0x23, 0x73, 0x20, 0xbd,
  0x31, 0xd0, 0xdd, 0x3d, 0xbc, 0x05, 0x96, 0x3a, 0xe2, 0x09, 0x18, 0x3e,
  0x68, 0xee, 0x23, 0xbe, 0x75, 0x4d, 0x3c, 0xbe, 0xe3, 0x1a, 0x09, 0x3e,
  0xc2, 0x71, 0x9e, 0x3d, 0x85, 0x66, 0x9b, 0x3d, 0xc9, 0xfd, 0x83, 0x3e,
  0xe3, 0x58, 0x27, 0xbe, 0x78, 0xb6, 0xef, 0xbd, 0xe9, 0x9d, 0xe4, 0xbd,
  0x35, 0x9d, 0x0b, 0x3e, 0x5c, 0xfc, 0xe0, 0x3c, 0x44, 0x37, 0x0a, 0xbe,
  0x3f, 0x1e, 0xff, 0x3c, 0x8e, 0x14, 0xc6, 0xbd, 0x4a, 0x87, 0x74, 0x3e,
  0x52, 0x05, 0xa0, 0xbd, 0x53, 0x61, 0x0d, 0xbe, 0x13, 0x94, 0x92, 0x3d,
  0xf2, 0x9c, 0x84, 0xbe, 0x8c, 0xdb, 0x52, 0x3c, 0xaa, 0x01, 0xce, 0xbd,
  0x63, 0xd5, 0x98, 0xbd, 0xfa, 0xe8, 0x8d, 0x3b, 0xcc, 0x44, 0x3a, 0x3d,
  0xe5, 0x70, 0x0c, 0xbe, 0x37, 0x8f, 0x92, 0xbd, 0xba, 0x48, 0x8a, 0xbe,
  0x78, 0xf8, 0xef, 0xbd, 0xe9, 0xbd, 0x68, 0x3e, 0x3f, 0x64, 0xc1, 0xbd,
  0xfe, 0xdd, 0xa5, 0x3d, 0x9f, 0x2b, 0x3a, 0x3e, 0xb4, 0xdc, 0x0b, 0xbe,
  0x97, 0x82, 0x3f, 0xbe, 0x33, 0x2b, 0x60, 0xbd, 0x38, 0x58, 0x61, 0x3e,
  0x66, 0x3a, 0x35, 0x3e, 0xc1, 0x5f, 0xe1, 0x3d, 0x03, 0x72, 0x24, 0x3e,
  0x73, 0x91, 0x9e, 0x3d, 0x13, 0xca, 0x6f, 0x3d, 0x3b, 0xf6, 0x84, 0x3e,
  0x7e, 0x35, 0x27, 0xbe, 0xc1, 0x37, 0xc0, 0xbd, 0xf7, 0xae, 0x18, 0xbe,
  0x7e, 0x4d, 0x5f, 0x3e, 0x0d, 0xc5, 0x49, 0x3e, 0x6e, 0x79, 0x75, 0xbd,
  0xe4, 0x7b, 0x20, 0xbe, 0x6a, 0x10, 0x8d, 0xbc, 0x57, 0x84, 0xb9, 0x3d,
  0xb9, 0xba, 0x01, 0x3e, 0xa3, 0xeb, 0x20, 0xbe, 0x59, 0x57, 0xe1, 0x3d,
  0xcd, 0xee, 0x47, 0x3e, 0x3a, 0x83, 0x9c, 0x3d, 0xac, 0x6f, 0x31, 0x3e,
  0x6a, 0x1c, 0xb2, 0xbd, 0xdb, 0x75, 0x3a, 0xbe, 0x8a, 0x61, 0x3f, 0xbe,
  0x31, 0x6e, 0x47, 0xbe, 0x5d, 0x5c, 0xb7, 0xbd, 0xb7, 0x2b, 0xe8, 0xbb,
  0x0a, 0x1a, 0x1b, 0xbe, 0xe2, 0x4e, 0x81, 0x3e, 0xea, 0xa0, 0x3d, 0x3d,
  0x1a, 0x4b, 0x44, 0x3e, 0x66, 0xa9, 0x84, 0x3d, 0x54, 0xaf, 0x12, 0x3e,
  0x9e, 0x1e, 0x9a, 0x3e, 0xbd, 0xfd, 0xb1, 0xbc, 0x34, 0x53, 0x91, 0xbe,
  0xdc, 0xa4, 0x9f, 0x3d, 0x9e, 0x18, 0x13, 0x3e, 0x0c, 0x7d, 0x3a, 0x3e,
  0x08, 0x8b, 0x51, 0x3e, 0xf8, 0x98, 0x09, 0x3e, 0x25, 0x8d, 0xa7, 0xbd,
  0xf3, 0x84, 0x50, 0x3e, 0x9c, 0xcc, 0xe8, 0xbd, 0x50, 0xd7, 0x03, 0xbe,
  0x0a, 0x99, 0x82, 0xbe, 0x2d, 0x3f, 0x0c, 0x3e, 0x5d, 0xf8, 0xe0, 0x3b,
  0xea, 0xdc, 0x38, 0x3e, 0x09, 0x5e, 0x29, 0xbe, 0x97, 0x24, 0x2e, 0x3e,
  0xb4, 0xb4, 0xcf, 0x3d, 0xf9, 0x12, 0x8f, 0x3e, 0x9c, 0x29, 0xc8, 0x3c,
  0x1e, 0x11, 0x5f, 0xbe, 0xe7, 0x1c, 0x15, 0x3e, 0x5c, 0x1c, 0xe8, 0xbd,
  0x3d, 0x33, 0x13, 0x3e, 0x8a, 0xfc, 0x18, 0x3e, 0x5f, 0x8d, 0x39, 0x3e,
  0x62, 0x92, 0x2a, 0x3d, 0x37, 0x83, 0x35, 0x3e, 0x4f, 0x33, 0x02, 0x3e,
  0x2e, 0x3e, 0x88, 0xbb, 0xcc, 0x89, 0xeb, 0xbc, 0xa9, 0x2e, 0x46, 0xbe,
  0x52, 0xf5, 0x52, 0x3e, 0x18, 0x19, 0x7b, 0x3e, 0xc1, 0x1b, 0x8f, 0xbe,
  0x5c, 0xd5, 0xf1, 0xbd, 0x6d, 0x6d, 0x05, 0xbe, 0xd0, 0x15, 0x8d, 0x3e,
  0xad, 0xb5, 0x0f, 0xbe, 0x4e, 0x2f, 0xea, 0x3b, 0x91, 0xd9, 0x14, 0x3e,
  0x80, 0x5a, 0x63, 0x3d, 0x79, 0x56, 0xd4, 0xbc, 0x76, 0x73, 0xde, 0x3d,
  0xbc, 0xa8, 0x02, 0x3e, 0xe7, 0x44, 0xa7, 0x3d, 0x59, 0xb9, 0x86, 0x3e,
  0x92, 0xc2, 0x57, 0xbe, 0xe7, 0xc9, 0x30, 0x3e, 0xdd, 0xdc, 0x8c, 0xbe,
  0x50, 0x6b, 0xb1, 0x3d, 0x78, 0x49, 0x04, 0x3e, 0x74, 0x57, 0x6b, 0x3c,
  0x59, 0xb2, 0x11, 0xbe, 0xd3, 0xfd, 0x52, 0x3e, 0x68, 0x12, 0xbc, 0x3a,
  0xe2, 0x9e, 0x2c, 0x3e, 0xd4, 0x92, 0x98, 0xbd, 0x3a, 0xd4, 0xae, 0xbb,
  0xca, 0xa1, 0xa4, 0xbd, 0x84, 0x46, 0x72, 0xbd, 0xfd, 0xb0, 0xd7, 0xbc,
  0x15, 0xcd, 0x31, 0xbe, 0xc1, 0x96, 0x26, 0x3d, 0x6d, 0xea, 0xd1, 0x3d,
  0xec, 0x94, 0x83, 0xbd, 0x11, 0x54, 0x3f, 0xbe, 0x07, 0x6f, 0x29, 0xbd,
  0xf7, 0x0e, 0x5a, 0xbd, 0x99, 0xfa, 0xd2, 0x3d, 0xfd, 0x4d, 0x1e, 0xbe,
  0x3f, 0xf3, 0x08, 0xbe, 0x22, 0x5a, 0x32, 0x3c, 0x2a, 0x5b, 0x6e, 0x3e,
  0x12, 0xca, 0xd5, 0xbc, 0xe7, 0xa3, 0xa0, 0x3d, 0xbf, 0x54, 0xd2, 0xbd,
  0x42, 0x45, 0xc1, 0xbd, 0x18, 0xc4, 0x1c, 0x3e, 0x86, 0xc2, 0x31, 0xbe,
  0x47, 0x1b, 0x25, 0x3e, 0xb5, 0x83, 0x81, 0x3d, 0x69, 0x41, 0x9f, 0xbd,
  0x12, 0x1e, 0x6b, 0xbe, 0x48, 0x8f, 0x24, 0x3e, 0x35, 0xab, 0x47, 0x3e,
  0xd3, 0xa6, 0xb8, 0x3d, 0x90, 0xa5, 0x8d, 0x3d, 0x8c, 0xdd, 0xe3, 0xbd,
  0xe3, 0x64, 0x01, 0x3e, 0x82, 0xe2, 0x54, 0x3e, 0x00, 0xb5, 0xd4, 0x3d,
  0x85, 0xb6, 0x83, 0xbe, 0x9d, 0x9e, 0x09, 0xbe, 0xd5, 0x61, 0x34, 0xbe,
  0xcc, 0x64, 0x2e, 0x3e, 0xd6, 0x03, 0xe6, 0xbd, 0xfa, 0x3e, 0xeb, 0x3d,
  0xe5, 0x7d, 0x17, 0xbd, 0x5e, 0x45, 0x9f, 0xbc, 0x26, 0x88, 0x9d, 0x3d,
  0xb5, 0x09, 0x10, 0x3e, 0xa1, 0x8b, 0x04, 0x3e, 0xa9, 0x85, 0x61, 0x3e,
  0xa4, 0xdb, 0x22, 0xbd, 0xcc, 0x73, 0xa0, 0xbb, 0x66, 0xdd, 0x0b, 0x3e,
  0x5d, 0x3b, 0xbb, 0x3c, 0x57, 0xc5, 0x0d, 0x3e, 0x58, 0x94, 0x93, 0xbe,
  0xe9, 0x1c, 0x0d, 0x3e, 0x31, 0xa9, 0x83, 0xbd, 0x89, 0x95, 0x47, 0x3e,
  0x3e, 0x3b, 0xf2, 0xbc, 0x3c, 0xd9, 0x3a, 0xbe, 0x53, 0x11, 0xe0, 0x3c,
  0xbf, 0x18, 0x21, 0x3d, 0x58, 0xd5, 0x21, 0x3e, 0x98, 0x91, 0x68, 0xbd,
  0x22, 0x5a, 0x5b, 0xbd, 0xf8, 0x8c, 0x3b, 0xbe, 0x56, 0xd3, 0x54, 0x3e,
  0x97, 0xcc, 0x28, 0xbc, 0x41, 0x40, 0xff, 0x3c, 0x95, 0x56, 0xa2, 0xbc,
  0x48, 0xa3, 0xe5, 0xbd, 0x9c, 0x4d, 0xd2, 0xbc, 0xc9, 0xf8, 0x65, 0xbd,
  0xdd, 0x15, 0x1f, 0x3e, 0x50, 0x90, 0xee, 0xbb, 0xb6, 0xd4, 0x91, 0xbd,
  0xc3, 0x3b, 0x48, 0x3e, 0x64, 0x23, 0x63, 0x3d, 0xbe, 0x16, 0x32, 0x3e,
  0x3c, 0xad, 0xe6, 0xbc, 0x37, 0xa6, 0xb2, 0x3d, 0x16, 0xfc, 0x92, 0x3c,
  0xe1, 0xd5, 0xae, 0x3d, 0x88, 0xd1, 0x44, 0xbe, 0xd6, 0x95, 0x84, 0x3d,
  0xaf, 0xff, 0x39, 0x3c, 0x3a, 0xa8, 0x55, 0x3c, 0x17, 0x38, 0xe3, 0x3d,
  0x38, 0x31, 0x64, 0xbe, 0x91, 0x85, 0x13, 0x3e, 0xb0, 0x89, 0x7b, 0x3e,
  0x23, 0xd2, 0x72, 0x3d, 0x03, 0x76, 0x4b, 0x3e, 0x2c, 0xf4, 0x07, 0x3d,
  0x7f, 0x17, 0x80, 0x3e, 0xc7, 0x2a, 0x63, 0xbe, 0x97, 0xf2, 0x11, 0xbe,
  0x0d, 0x9d, 0xd2, 0xbd, 0xf0, 0x19, 0x6e, 0xbe, 0x71, 0x7c, 0x35, 0xbe,
  0xde, 0x7f, 0x67, 0x3e, 0x8f, 0x8a, 0x98, 0xbd, 0x49, 0x83, 0xcd, 0xbd,
  0x30, 0xb6, 0x3f, 0x3e, 0xbf, 0x96, 0x82, 0xbe, 0x76, 0xe2, 0xbb, 0x3b,
  0x84, 0x4b, 0x96, 0xbd, 0x90, 0x18, 0xf3, 0x3d, 0x06, 0xea, 0x48, 0xbe,
  0x99, 0x97, 0xd5, 0x3d, 0x0f, 0xa0, 0xc4, 0xbd, 0xa5, 0x0a, 0x52, 0x3d,
  0xac, 0xee, 0x29, 0xbd, 0x27, 0xc0, 0x32, 0x3e, 0x76, 0x7e, 0xd5, 0xbd,
  0x31, 0x7e, 0x02, 0x3e, 0xd5, 0x23, 0xac, 0xbc, 0x19, 0xb7, 0x3c, 0x3e,
  0xa8, 0x10, 0x09, 0x3d, 0xac, 0xe0, 0x1c, 0xbe, 0x3b, 0x3a, 0x7d, 0x3e,
  0x66, 0x8d, 0x06, 0x3e, 0x21, 0x05, 0xa2, 0xbc, 0x28, 0x7a, 0xea, 0x3d,
  0x24, 0x76, 0x2a, 0xbe, 0x1d, 0x29, 0xdb, 0xbd, 0xec, 0x69, 0x1c, 0xbe,
  0x84, 0xab, 0x0e, 0xbe, 0x86, 0x4a, 0x55, 0x3e, 0xd9, 0x8d, 0x30, 0x3d,
  0xa7, 0x4b, 0xea, 0xbd, 0x40, 0x81, 0x6b, 0xbd, 0x48, 0xf5, 0xf6, 0x3d,
  0xe3, 0x2b, 0x49, 0x3e, 0xda, 0x4c, 0x47, 0x3d, 0x8d, 0xf9, 0x99, 0x3d,
  0x20, 0xa2, 0xa3, 0x3c, 0x5b, 0x86, 0x11, 0x3e, 0x55, 0x26, 0x6a, 0xbe,
  0x98, 0x03, 0x67, 0x3c, 0x38, 0x65, 0x84, 0x3e, 0x1d, 0x10, 0xa9, 0x3d,
  0xf7, 0xab, 0x86, 0x3e, 0x81, 0x5d, 0xdd, 0xbc, 0x0c, 0x5c, 0xc5, 0xbd,
  0x23, 0xdb, 0x5a, 0xbe, 0x0e, 0xea, 0x1e, 0x3e, 0x21, 0x38, 0x73, 0x3c,
  0xb9, 0x56, 0xe8, 0x3d, 0x7d, 0x0e, 0x5d, 0x3c, 0xc6, 0xed, 0x16, 0x3e,
  0xba, 0x42, 0x83, 0xbb, 0x76, 0x4a, 0x4a, 0xbe, 0x6d, 0xcc, 0x0e, 0x3e,
  0x8c, 0x5c, 0x68, 0xbd, 0x49, 0x38, 0x42, 0xbe, 0x3f, 0xf2, 0x68, 0xbe,
  0xe5, 0xfe, 0x9b, 0x3c, 0x2a, 0xbb, 0xc7, 0x3b, 0x95, 0xd6, 0x74, 0xbe,
  0x6f, 0x8b, 0x23, 0xbe, 0x27, 0x33, 0x68, 0xbe, 0xaf, 0xe2, 0x77, 0xbd,
  0x2f, 0x6c, 0x8d, 0xbd, 0x41, 0xff, 0x84, 0xbc, 0x49, 0xca, 0xfc, 0xbd,
  0x39, 0x66, 0x69, 0xbe, 0x41, 0xf5, 0x4b, 0x3d, 0x28, 0x24, 0x50, 0x3e,
  0x66, 0x46, 0xd9, 0x3d, 0x76, 0x3a, 0xc6, 0x3d, 0xd6, 0x5a, 0x4d, 0xbd,
  0x0f, 0xb0, 0xa5, 0xbd, 0x7c, 0xec, 0x88, 0x3e, 0x15, 0x8f, 0x49, 0xbe,
  0x30, 0xfb, 0xd2, 0xbb, 0xed, 0xfa, 0x93, 0xbd, 0xef, 0x74, 0x1f, 0x3e,
  0x42, 0xde, 0x36, 0xbe, 0x11, 0x7c, 0x3f, 0xbe, 0x74, 0x3f, 0x67, 0x3e,
  0x57, 0x41, 0x14, 0xbe, 0x52, 0x97, 0x4f, 0xbe, 0x7f, 0xa1, 0x23, 0xbe,
  0xd2, 0xa7, 0xaa, 0x3d, 0xda, 0x55, 0xb2, 0xbd, 0xc2, 0x6f, 0x74, 0xbe,
  0x93, 0x5e, 0xad, 0x3d, 0x18, 0xa0, 0xf2, 0xbd, 0x0d, 0xb7, 0xf9, 0xbd,
  0x5e, 0x16, 0xe8, 0xbd, 0x00, 0xb0, 0x31, 0xbe, 0x27, 0x5b, 0xe1, 0xbb,
  0xbf, 0x50, 0x75, 0xbe, 0x5b, 0x37, 0x0c, 0x3d, 0xe3, 0x89, 0x1f, 0xbd,
  0xa0, 0x9e, 0xf7, 0x3d, 0x9d, 0x87, 0xe3, 0x3d, 0xf8, 0xdd, 0xef, 0x3b,
  0xcc, 0x1a, 0x8b, 0xbe, 0xc0, 0x7a, 0x8c, 0xbe, 0x37, 0x7e, 0xf1, 0xbd,
  0xee, 0x09, 0x49, 0x3a, 0x23, 0xed, 0x09, 0x3e, 0x15, 0xe1, 0x7d, 0x3e,
  0x0d, 0xfc, 0x16, 0x3e, 0x7e, 0xda, 0x96, 0xbe, 0xfa, 0x0b, 0x88, 0xbe,
  0xf1, 0x1a, 0x10, 0xbe, 0x8f, 0x24, 0x82, 0xbe, 0x66, 0x5e, 0x86, 0xbe,
  0x14, 0x0b, 0x49, 0xbd, 0xab, 0x67, 0x9f, 0xbc, 0xcd, 0x39, 0xd4, 0x3c,
  0xf0, 0xda, 0x53, 0xbe, 0xc1, 0xb4, 0x83, 0x3c, 0xc0, 0x1f, 0xe3, 0x3d,
  0xf0, 0x87, 0x71, 0x3d, 0x0c, 0xc7, 0x2e, 0xbe, 0x76, 0x82, 0x47, 0xbe,
  0xef, 0x9f, 0xf6, 0xbd, 0x44, 0xac, 0x3d, 0xbe, 0x01, 0xcf, 0x4b, 0xbe,
  0x5d, 0x84, 0xd1, 0x3c, 0x72, 0xe7, 0x13, 0x3e, 0xf7, 0x43, 0x0f, 0x3e,
  0x82, 0x09, 0x4c, 0xbd, 0xdc, 0x0c, 0xe9, 0x3d, 0x92, 0x8c, 0x53, 0xbe,
  0xa3, 0xe4, 0x44, 0x3d, 0x8b, 0xa3, 0xa0, 0xbd, 0xc9, 0x3e, 0x6c, 0x3e,
  0x99, 0x4e, 0x10, 0xbe, 0x65, 0xf3, 0x69, 0x3e, 0x28, 0x75, 0x74, 0x3d,
  0x04, 0xc4, 0x85, 0x3e, 0xaa, 0x7d, 0x88, 0xbe, 0xf6, 0x09, 0x38, 0xbe,
  0x03, 0x55, 0x7f, 0xbd, 0x19, 0xfd, 0xe2, 0x3d, 0x59, 0x28, 0xf4, 0x3d,
  0x70, 0x05, 0x9f, 0xbd, 0x78, 0xf5, 0x24, 0xbe, 0xc9, 0x8d, 0x76, 0xbd,
  0x8e, 0x23, 0x1d, 0xbe, 0xc4, 0xcb, 0x54, 0x3e, 0x8c, 0xd8, 0x86, 0xbc,
  0x2b, 0x13, 0xe4, 0xbd, 0x1b, 0xa2, 0x21, 0xbe, 0x94, 0x13, 0x6e, 0x3e,
  0xac, 0x5b, 0x92, 0xbd, 0x71, 0x89, 0x25, 0x3e, 0x64, 0xed, 0xd0, 0xbc,
  0x94, 0xc1, 0x15, 0xbe, 0xf4, 0xc3, 0x0a, 0xbe, 0x95, 0x0c, 0x81, 0xbe,
  0x8c, 0xfc, 0xa9, 0x3d, 0xee, 0xa1, 0x07, 0xbe, 0x41, 0xf1, 0x38, 0x3e,
  0xf9, 0x30, 0xaf, 0xbd, 0x86, 0x31, 0x51, 0xbe, 0xe3, 0x02, 0x46, 0x3d,
  0xfc, 0x86, 0x9b, 0xbd, 0xdd, 0x6e, 0xc8, 0x3d, 0x46, 0x17, 0xf8, 0xbd,
  0xd1, 0xae, 0x38, 0xbe, 0xe9, 0xa4, 0xb3, 0x3d, 0xe0, 0x2a, 0xd3, 0x3d,
  0x56, 0x19, 0x89, 0x3e, 0xcd, 0x63, 0x24, 0x3e, 0x82, 0x37, 0x0e, 0x3e,
  0x3e, 0xc4, 0x4a, 0x3e, 0xaa, 0xc2, 0xaa, 0x3d, 0xd1, 0x8f, 0xf9, 0xbd,
  0x59, 0xca, 0xd3, 0xbd, 0xc2, 0xb2, 0x44, 0xbe, 0x29, 0x15, 0x0e, 0xbd,
  0x08, 0xdc, 0xe3, 0xbd, 0xc1, 0x8d, 0x38, 0xbe, 0xcb, 0xf8, 0x22, 0xbe,
  0xf5, 0x49, 0x97, 0xbe, 0xee, 0x21, 0xca, 0x3d, 0x5c, 0x3c, 0x89, 0xbe,
  0x11, 0xa4, 0x47, 0xbe, 0x0a, 0x06, 0x28, 0xbe, 0x88, 0xa2, 0xc3, 0x3d,
  0x7e, 0x70, 0x8d, 0xbd, 0xdf, 0x2d, 0xc1, 0x3d, 0xb9, 0x11, 0x16, 0x3d,
  0xda, 0xc9, 0xe1, 0xbd, 0x44, 0x96, 0x1a, 0xbe, 0xb7, 0x53, 0x74, 0x3e,
  0x3b, 0xca, 0x4a, 0x3e, 0xa5, 0xee, 0x57, 0xbd, 0xeb, 0xa3, 0x19, 0x3d,
  0x2f, 0x26, 0x42, 0x3e, 0x23, 0xde, 0x70, 0x3e, 0x1c, 0x60, 0x68, 0x3e,
  0x67, 0x07, 0xe7, 0xbd, 0x96, 0xd3, 0x85, 0xbe, 0x0f, 0xc8, 0x86, 0x3e,
  0xf8, 0x31, 0x2b, 0x3d, 0x31, 0x89, 0xfe, 0xbd, 0xb0, 0xc6, 0xd1, 0x3d,
  0x9b, 0xf3, 0xd6, 0xbd, 0xbc, 0xe1, 0x7c, 0xba, 0x5c, 0xda, 0xc6, 0xbd,
  0x88, 0x72, 0x95, 0x3e, 0x3c, 0xeb, 0x88, 0xbc, 0x16, 0xdf, 0xaa, 0x3d,
  0x92, 0x62, 0x85, 0x3d, 0xed, 0x16, 0x04, 0xbe, 0x1c, 0xc4, 0xa4, 0xbd,
  0xe7, 0xe5, 0xbb, 0x3d, 0xe5, 0x74, 0x23, 0xbe, 0x8b, 0x67, 0x9a, 0xbd,
  0x05, 0x4b, 0xd5, 0xbd, 0xfb, 0xb0, 0x6c, 0xbe, 0xa0, 0xa6, 0x65, 0xbe,
  0xb6, 0xce, 0xaf, 0x3d, 0xf0, 0x40, 0x04, 0xbe, 0x9a, 0x79, 0xc8, 0xbc,
  0x1f, 0xd6, 0xa1, 0x3d, 0x4c, 0x2b, 0xc7, 0x3d, 0x84, 0x67, 0x23, 0xbe,
  0x50, 0x32, 0x80, 0xbe, 0x73, 0x0d, 0x7f, 0x3e, 0x4f, 0x91, 0x32, 0x3e,
  0x98, 0xd3, 0x75, 0xbe, 0x33, 0x14, 0xcf, 0xbd, 0xa2, 0xf1, 0x51, 0x3e,
  0x4f, 0xb6, 0xc4, 0xbd, 0xff, 0xbc, 0x0f, 0xbd, 0xe9, 0xcd, 0x07, 0x3e,
  0x05, 0x36, 0x61, 0x3e, 0x16, 0x57, 0xe5, 0x3c, 0xf9, 0x2d, 0x45, 0xbe,
  0x7f, 0xc0, 0xa4, 0xbd, 0xc0, 0xae, 0xaa, 0xbe, 0x72, 0xd9, 0x2d, 0x3b,
  0x38, 0x8f, 0x19, 0xbe, 0xda, 0x33, 0x5f, 0x3d, 0x68, 0xd9, 0x56, 0xbd,
  0x70, 0x87, 0x1c, 0xbe, 0x55, 0xbe, 0x55, 0xbd, 0xa4, 0x57, 0xc5, 0xbd,
  0x43, 0x39, 0x53, 0xbe, 0x19, 0x58, 0x93, 0xbe, 0xd3, 0xda, 0x97, 0xbe,
  0xc4, 0x54, 0x49, 0x3e, 0x78, 0x5f, 0xfc, 0x3d, 0xbf, 0x30, 0x98, 0x3d,
  0xf1, 0x04, 0x57, 0xbe, 0x17, 0xac, 0x02, 0x3e, 0x46, 0x4d, 0x8f, 0xbc,
  0xa7, 0x69, 0x4f, 0x3e, 0x2c, 0x33, 0x4d, 0xbe, 0x59, 0x6f, 0x2f, 0x3c,
  0xe1, 0x91, 0x0d, 0x3e, 0x55, 0xe4, 0x8f, 0xbb, 0x2c, 0x03, 0x56, 0x3e,
  0x94, 0x86, 0xa9, 0x3d, 0x8b, 0xad, 0xbe, 0x3d, 0x60, 0x15, 0x60, 0xbd,
  0xa4, 0xa9, 0xd8, 0xbc, 0xda, 0x48, 0x83, 0x3e, 0x06, 0x99, 0x97, 0x3c,
  0x8b, 0xa2, 0x5b, 0xbe, 0x5e, 0x63, 0x82, 0x3e, 0x6d, 0xc8, 0x88, 0x3e,
  0x5d, 0x00, 0x37, 0x3e, 0x33, 0x05, 0xd6, 0x3d, 0x25, 0x5d, 0xe5, 0x3d,
  0xd3, 0x59, 0x39, 0x3d, 0xdc, 0xe2, 0xac, 0x3d, 0x90, 0xe6, 0x18, 0x3e,
  0x09, 0x8d, 0x60, 0xbd, 0x48, 0x38, 0x96, 0xbd, 0x9d, 0x21, 0x6e, 0x3e,
  0xfe, 0x60, 0xb1, 0xbd, 0xb1, 0x7d, 0x82, 0x3e, 0x35, 0x7e, 0x62, 0xbe,
  0x41, 0x72, 0x4e, 0x3e, 0xba, 0x39, 0x87, 0x3e, 0x75, 0xc0, 0xcf, 0x3d,
  0x4a, 0x4e, 0x75, 0x3d, 0x92, 0x60, 0x62, 0xbe, 0x66, 0xbf, 0x07, 0xbd,
  0x98, 0xed, 0x0b, 0xbd, 0x62, 0x0b, 0xff, 0xbd, 0xb3, 0x5d, 0x4b, 0x3e,
  0x09, 0x9b, 0x51, 0xbd, 0x7a, 0xc0, 0x2b, 0xbe, 0xd3, 0x47, 0x91, 0xbb,
  0x48, 0x2e, 0x8f, 0x3d, 0x9d, 0x35, 0x6b, 0xbe, 0xb5, 0x19, 0x68, 0xbe,
  0x91, 0xf8, 0xd3, 0xbc, 0x54, 0x48, 0x5c, 0xbe, 0xe9, 0xd5, 0xf0, 0x3d,
  0x9c, 0x10, 0x78, 0x3e, 0x40, 0x0e, 0xbb, 0xbc, 0xa8, 0x0d, 0x61, 0xbe,
  0x15, 0x9b, 0x21, 0xbe, 0x0a, 0x3b, 0x6d, 0xbb, 0x5a, 0xea, 0xf4, 0x3d,
  0x35, 0xd6, 0xa5, 0xbd, 0x81, 0xda, 0x1c, 0xbe, 0xa7, 0xdf, 0x78, 0xbd,
  0xa2, 0x96, 0x3f, 0x3e, 0xa3, 0x15, 0x35, 0xbd, 0x89, 0x6c, 0xcf, 0x3b,
  0x8b, 0x91, 0x1b, 0xbe, 0xe9, 0x4c, 0x9b, 0xbd, 0x77, 0x88, 0x3e, 0xbe,
  0x73, 0x79, 0x9c, 0x3d, 0x4e, 0xb2, 0x19, 0x3e, 0x0a, 0x13, 0xc2, 0x3c,
  0xec, 0x8a, 0xe7, 0xbc, 0xc1, 0x1d, 0xee, 0x3d, 0x6e, 0xa3, 0x85, 0x3e,
  0xf2, 0xce, 0x10, 0xbe, 0x82, 0xdc, 0xfc, 0xbd, 0x58, 0x29, 0xca, 0xbc,
  0xb6, 0xed, 0xa2, 0xbd, 0xe5, 0xb8, 0xd4, 0xbd, 0xcc, 0xfb, 0x05, 0xbe,
  0x7b, 0xce, 0x0d, 0x3e, 0x17, 0x8e, 0xc0, 0xba, 0x68, 0x15, 0x02, 0x3e,
  0x87, 0xb0, 0x18, 0xbe, 0x60, 0x23, 0x04, 0xbd, 0x19, 0xf3, 0x51, 0xbe,
  0xf9, 0x99, 0x8d, 0x3d, 0x71, 0xa7, 0x71, 0x3e, 0x3a, 0x87, 0x51, 0xbe,
  0x4e, 0xb0, 0xa1, 0xbd, 0x75, 0x9b, 0xc5, 0xbd, 0x0f, 0x3c, 0x24, 0x3d,
  0x54, 0x8a, 0x35, 0x3e, 0xe8, 0xbb, 0x37, 0xbe, 0x63, 0xf0, 0x4e, 0xbd,
  0xe6, 0x08, 0x83, 0x3e, 0x09, 0xbb, 0x3d, 0xbe, 0x3e, 0x1f, 0xce, 0x3d,
  0x9d, 0x50, 0x6c, 0xbd, 0x00, 0x93, 0x67, 0x3e, 0xa1, 0x4d, 0x0f, 0x3e,
  0xb7, 0x3e, 0xb2, 0x3c, 0x6d, 0x80, 0xc9, 0xbd, 0xcd, 0x95, 0x78, 0x3d,
  0x9f, 0x72, 0x5d, 0x3e, 0xca, 0xe2, 0x1b, 0x3e, 0x2b, 0x6e, 0x58, 0x3e,
  0xe7, 0x94, 0x13, 0xbe, 0xdc, 0xbb, 0x0a, 0x3e, 0xb4, 0xe8, 0xed, 0x3d,
  0x1c, 0x29, 0x4d, 0xbe, 0xca, 0xed, 0x48, 0xbe, 0x4f, 0x82, 0xa3, 0x3d,
  0x52, 0xbd, 0x6b, 0xbe, 0x9d, 0x53, 0xc2, 0x3c, 0x91, 0x60, 0xda, 0xbd,
  0x71, 0x68, 0x87, 0x3e, 0x3f, 0xa9, 0x20, 0x3d, 0xa7, 0x41, 0x29, 0xbd,
  0x29, 0x6c, 0xfa, 0x3d, 0x26, 0x65, 0x38, 0xbe, 0xf0, 0xbb, 0x57, 0x3e,
  0xe3, 0x4f, 0x77, 0xbe, 0xf6, 0xc9, 0x88, 0xbc, 0xb0, 0x09, 0x7b, 0xbe,
  0x66, 0x98, 0x84, 0xbe, 0xa9, 0x88, 0x8f, 0xbd, 0xe7, 0x9d, 0x4d, 0x3e,
  0x75, 0x92, 0xd1, 0x3d, 0xc2, 0x04, 0x33, 0x3e, 0x76, 0x7e, 0x8d, 0x3e,
  0xac, 0x5c, 0x72, 0xbd, 0x0f, 0xe0, 0x0a, 0x3e, 0x7b, 0x19, 0x54, 0x3e,
  0xef, 0x59, 0x97, 0xbd, 0x8f, 0xf6, 0x4c, 0xbd, 0xd6, 0x92, 0x12, 0x3e,
  0x7c, 0xb9, 0x09, 0xbe, 0x6a, 0x58, 0x1d, 0x3e, 0xb2, 0x7d, 0x0a, 0x3e,
  0x7e, 0x1c, 0x5e, 0x3d, 0x45, 0xf9, 0xd2, 0x3d, 0x1d, 0x7b, 0x3b, 0xbe,
  0xaa, 0xda, 0xf4, 0xbd, 0x8d, 0x2a, 0xb1, 0x3d, 0xbd, 0x13, 0x0d, 0x3e,
  0xf8, 0x03, 0x4c, 0x3e, 0x75, 0xd7, 0xf3, 0x3c, 0xb8, 0xb2, 0x98, 0x3d,
  0xe5, 0xa7, 0x58, 0x3e, 0x94, 0x4f, 0x34, 0xbe, 0x4b, 0xc5, 0x4e, 0x3e,
  0xb4, 0x2b, 0x3d, 0xbe, 0xe9, 0xa6, 0x24, 0x3c, 0xe8, 0xdf, 0xcc, 0xbd,
  0x9d, 0xfc, 0x82, 0x3e, 0x0a, 0x58, 0x5b, 0xbe, 0xb7, 0x54, 0xeb, 0x3d,
  0x52, 0x07, 0x95, 0x3d, 0x2e, 0xc9, 0x55, 0xbe, 0xe0, 0xde, 0x18, 0xbc,
  0x11, 0x53, 0x58, 0x3e, 0xb6, 0xad, 0x61, 0x3e, 0x3a, 0x9f, 0x84, 0xbe,
  0x8b, 0x7f, 0x1c, 0x3e, 0xc0, 0x7d, 0x60, 0x3e, 0xe3, 0xdd, 0x51, 0xbd,
  0xeb, 0x6c, 0xb1, 0x3d, 0x44, 0xe8, 0x54, 0xbe, 0x33, 0xed, 0x97, 0x3d,
  0x71, 0x98, 0x66, 0xbe, 0x2a, 0x9e, 0x3a, 0x3e, 0x5b, 0xb9, 0x31, 0x3e,
  0x98, 0x18, 0x03, 0xbc, 0x47, 0x1e, 0x72, 0xbe, 0x08, 0x33, 0xd9, 0x3d,
  0x3b, 0x2b, 0x32, 0xbe, 0xef, 0xaf, 0xc7, 0xbd, 0x25, 0x8d, 0x81, 0xbd,
  0x51, 0x4b, 0xcb, 0x3d, 0x92, 0x25, 0xf5, 0xbd, 0xf3, 0x80, 0x4d, 0xbe,
  0x8a, 0x21, 0x83, 0xbe, 0x66, 0x63, 0x66, 0xbe, 0x33, 0x82, 0x82, 0xbe,
  0xdd, 0xb2, 0x02, 0x3d, 0xe1, 0xa7, 0x11, 0x3e, 0x28, 0x6b, 0xe0, 0x3d,
  0x6c, 0x38, 0xe5, 0x3d, 0x52, 0x6b, 0x86, 0xbe, 0x7b, 0xee, 0x61, 0xbe,
  0x3f, 0xf7, 0x6c, 0x3e, 0xe9, 0xe2, 0x69, 0x3e, 0x6f, 0xef, 0x3b, 0xbe,
  0x08, 0xa7, 0x36, 0x3e, 0x3f, 0xa7, 0x78, 0xbd, 0xd2, 0xa5, 0x8a, 0xbe,
  0x24, 0x29, 0x6b, 0xbe, 0xed, 0x91, 0x8f, 0x3c, 0x91, 0x2c, 0x33, 0x3e,
  0x28, 0x9a, 0x17, 0x3d, 0x45, 0x33, 0xd3, 0x3d, 0x60, 0x32, 0x49, 0x3e,
  0xb4, 0x3c, 0x43, 0x3e, 0xf3, 0x65, 0x64, 0x3d, 0xeb, 0x42, 0x23, 0x3d,
  0x8b, 0x4f, 0x02, 0xbe, 0x7c, 0x0f, 0x2d, 0x3e, 0xe4, 0x1e, 0x80, 0xbe,
  0x46, 0x1d, 0xab, 0xbd, 0xaf, 0xcf, 0x6e, 0xbd, 0x66, 0xbb, 0x5e, 0x3e,
  0xb0, 0x1f, 0x1a, 0xbe, 0x44, 0xab, 0x71, 0x3d, 0x6b, 0xb8, 0x7e, 0xbe,
  0x67, 0x18, 0x96, 0x3c, 0xdd, 0xbc, 0xee, 0x3d, 0x36, 0xd9, 0xc5, 0xbc,
  0x02, 0x3b, 0x87, 0x3e, 0xae, 0xc7, 0xb7, 0xbd, 0x61, 0x35, 0x88, 0xbe,
  0x40, 0x4a, 0xad, 0xbb, 0x48, 0x1d, 0x18, 0x3e, 0x5b, 0x65, 0x54, 0x3e,
  0xb6, 0x9d, 0xc7, 0xbd, 0xac, 0xf1, 0x81, 0xbe, 0xad, 0xf6, 0x43, 0x3d,
  0xcf, 0xa7, 0x5b, 0x3e, 0xf8, 0x55, 0xfc, 0x3d, 0x71, 0xdc, 0xb6, 0x3c,
  0x19, 0x16, 0x1d, 0x3d, 0x36, 0x53, 0x69, 0xbe, 0xcd, 0x34, 0x2e, 0xbd,
  0x7c, 0x49, 0x7c, 0xbe, 0x68, 0xe4, 0x0e, 0x3e, 0xff, 0x29, 0x09, 0xbe,
  0x7e, 0x2b, 0xb1, 0xbd, 0xde, 0xe1, 0x6e, 0x3e, 0xc6, 0x4b, 0x82, 0xbc,
  0x90, 0x1b, 0x50, 0x3e, 0xb1, 0x26, 0xd9, 0x3b, 0x21, 0xf5, 0x4c, 0x3e,
  0x78, 0x20, 0xda, 0x3d, 0xd5, 0x5f, 0x58, 0xbd, 0x1a, 0x0c, 0x36, 0x3e,
  0x1d, 0xef, 0xb1, 0x3d, 0x81, 0x9d, 0x17, 0xbe, 0x86, 0x69, 0x89, 0x3d,
  0x95, 0x1f, 0x38, 0x3d, 0x17, 0x99, 0x2f, 0x3e, 0xcb, 0xfc, 0x7f, 0x3e,
  0x5f, 0x64, 0x58, 0x3e, 0x30, 0xc3, 0xf3, 0x3c, 0x56, 0x28, 0x3f, 0xbd,
  0x10, 0x8f, 0x1f, 0x3e, 0xf3, 0x14, 0x8a, 0xbe, 0x96, 0xea, 0xba, 0x3d,
  0xe4, 0x55, 0x86, 0x3e, 0x8c, 0xba, 0xba, 0x3d, 0xf7, 0xb8, 0xc3, 0x3d,
  0x54, 0xb1, 0x0b, 0x3e, 0xd1, 0x5a, 0xf9, 0xbd, 0x18, 0x75, 0x77, 0xbe,
  0x76, 0x6b, 0x6b, 0x3d, 0x53, 0x47, 0x57, 0xbe, 0x78, 0x23, 0xb6, 0xbc,
  0x83, 0xbe, 0xf5, 0xbd, 0xcc, 0xa4, 0x4e, 0xbe, 0xc2, 0x22, 0x3f, 0x3e,
  0x9d, 0x89, 0x89, 0xbe, 0xec, 0x14, 0x26, 0xbe, 0x83, 0x55, 0x67, 0xbe,
  0x6d, 0x3d, 0x2b, 0xbe, 0xb4, 0xc1, 0x8f, 0xbd, 0x3e, 0x13, 0x56, 0xbe,
  0x87, 0x73, 0x6c, 0x3d, 0xf4, 0xa0, 0xae, 0xbd, 0x37, 0xbd, 0x48, 0x3e,
  0x9f, 0xd9, 0x3a, 0xbe, 0x53, 0xd3, 0xa5, 0xbd, 0x8c, 0x9c, 0xf8, 0x3d,
  0xe3, 0xa0, 0x6d, 0xbe, 0x98, 0x10, 0x19, 0xbd, 0xf3, 0xf6, 0x11, 0x3e,
  0x02, 0x2d, 0x35, 0xbe, 0x3c, 0x40, 0x86, 0xbe, 0xe6, 0xa8, 0x11, 0xbe,
  0xf2, 0x53, 0x75, 0xbe, 0x22, 0x3a, 0x6b, 0xbe, 0x01, 0x40, 0x60, 0xbd,
  0xc4, 0xfa, 0xc3, 0x3d, 0x7a, 0xae, 0xc3, 0xbd, 0xa5, 0xa1, 0x87, 0xbb,
  0x9b, 0xb2, 0x23, 0xbd, 0x5c, 0x22, 0x80, 0xbe, 0x82, 0x3a, 0x21, 0xbd,
  0x71, 0x28, 0x42, 0xbe, 0x55, 0xf1, 0x8f, 0x3c, 0xc8, 0x46, 0x03, 0x3e,
  0x97, 0x8e, 0x68, 0x3e, 0xa4, 0x6a, 0x04, 0x3e, 0x0e, 0x6d, 0x05, 0x3e,
  0x87, 0xed, 0x51, 0x3e, 0xe2, 0xde, 0x25, 0xbd, 0x9e, 0x97, 0x96, 0x3d,
  0x17, 0x58, 0xb9, 0xbd, 0xd8, 0x37, 0x86, 0xbe, 0x5a, 0x6e, 0x4e, 0xbe,
  0x2d, 0xa8, 0x86, 0x3e, 0x36, 0x2c, 0x32, 0x3d, 0xbc, 0x4e, 0x01, 0x3e,
  0x9f, 0x22, 0x13, 0x3e, 0x31, 0xe5, 0x8a, 0xbe, 0xe7, 0xf1, 0x68, 0x3e,
  0x55, 0xa9, 0x85, 0xbd, 0x26, 0x33, 0x2d, 0xbd, 0x52, 0x40, 0x4f, 0x3e,
  0x2f, 0x12, 0xb1, 0x3c, 0x22, 0xac, 0x14, 0x3e, 0x7c, 0x4f, 0x22, 0xbd,
  0x58, 0xa4, 0x44, 0x3e, 0x6f, 0x49, 0x83, 0xbe, 0x51, 0xd7, 0x98, 0x3d,
  0x46, 0xee, 0xfb, 0xbc, 0xa0, 0xc1, 0xc0, 0x3d, 0x93, 0x46, 0xe5, 0x3d,
  0x6b, 0xc5, 0xf9, 0x3d, 0x55, 0x95, 0xce, 0x3d, 0x2e, 0x48, 0xa2, 0xbd,
  0x5d, 0xf4, 0xfb, 0x3d, 0x54, 0x25, 0x81, 0xbe, 0x44, 0xf2, 0x46, 0xbe,
  0x2c, 0x3c, 0x23, 0xbe, 0x46, 0x0d, 0x29, 0x3e, 0xa0, 0xdd, 0x61, 0x3e,
  0x10, 0xf9, 0x78, 0xbd, 0xac, 0x8f, 0x08, 0x3c, 0xe9, 0xc2, 0x65, 0xbe,
  0x9a, 0x76, 0x79, 0x3e, 0xdd, 0x39, 0x90, 0xbc, 0xd0, 0xa1, 0x47, 0x3e,
  0x81, 0xb0, 0x70, 0x3c, 0xeb, 0x0a, 0x3d, 0x3d, 0xe6, 0xf5, 0x17, 0xbc,
  0x41, 0xe6, 0x73, 0x3d, 0xdb, 0xd4, 0x5b, 0x3e, 0x65, 0xd7, 0xe1, 0xbd,
  0xde, 0x68, 0xb1, 0x3b, 0x6e, 0xf0, 0x56, 0xbe, 0xc9, 0xc7, 0xaf, 0xbc,
  0x07, 0xee, 0xe0, 0x3c, 0x5f, 0x8f, 0x07, 0xbd, 0x3c, 0x46, 0x2c, 0x3e,
  0x89, 0x4c, 0x04, 0x3e, 0xf1, 0xd1, 0x2a, 0xbd, 0x2a, 0xff, 0xff, 0xff,
  0x04, 0x00, 0x00, 0x00, 0xc8, 0x00, 0x00, 0x00, 0xc9, 0x29, 0xfc, 0x3d,
  0x3e, 0x9e, 0xe5, 0x3d, 0x99, 0xfc, 0x9c, 0xbd, 0x4a, 0x1c, 0xbf, 0x3d,
  0x55, 0xdc, 0xdd, 0x3d, 0xcb, 0xba, 0xa7, 0xbd, 0xc7, 0x7d, 0xe6, 0x3d,
  0xc8, 0x25, 0x61, 0xbd, 0xfd, 0x62, 0x85, 0xbd, 0x57, 0xa5, 0xf7, 0x3d,
  0xd7, 0x94, 0xe4, 0x3d, 0xcd, 0x5e, 0x45, 0xbc, 0xa7, 0x91, 0x39, 0xbd,
  0x7f, 0x6b, 0x5d, 0x3d, 0x7b, 0x1c, 0xa6, 0xbd, 0x6e, 0x85, 0x83, 0xbd,
  0xe1, 0xfc, 0xec, 0x3d, 0xeb, 0xb3, 0xa6, 0xbd, 0x31, 0x86, 0x70, 0xbd,
  0x53, 0xb3, 0xb1, 0xbd, 0x57, 0x30, 0x5d, 0xbd, 0xdb, 0xc9, 0xd7, 0x3d,
  0x92, 0xe9, 0xaf, 0xbd, 0x1a, 0x6c, 0x87, 0xbd, 0x84, 0x92, 0x34, 0xbd,
  0xd3, 0x05, 0xf3, 0x3d, 0x48, 0x8d, 0x77, 0x3d, 0x23, 0xd9, 0xd4, 0x3d,
  0x8f, 0xc3, 0xfa, 0x3d, 0x3c, 0x38, 0xb0, 0xbd, 0xff, 0xa9, 0xac, 0xbd,
  0x05, 0x6b, 0xc6, 0x3d, 0xcb, 0x14, 0xef, 0x3d, 0xf3, 0x7e, 0x8e, 0xbd,
  0x13, 0x70, 0xe2, 0x3d, 0x4c, 0x5f, 0x90, 0xbd, 0x55, 0x3b, 0xd3, 0x3d,
  0xe2, 0x8e, 0xe9, 0x3d, 0x5e, 0x74, 0xe7, 0x3d, 0x68, 0x7c, 0x91, 0xbd,
  0x61, 0x89, 0x94, 0xbd, 0xe6, 0x10, 0x39, 0xbd, 0x2e, 0x33, 0xfb, 0x3d,
  0x36, 0x13, 0xba, 0xbd, 0xa1, 0xeb, 0xa1, 0x3d, 0x25, 0xfc, 0x6e, 0xbd,
  0x65, 0x3e, 0x81, 0xbd, 0x41, 0x20, 0x61, 0xbd, 0x68, 0xb0, 0x8b, 0xbd,
  0x07, 0xc2, 0xb6, 0xbd, 0x00, 0x00, 0x06, 0x00, 0x08, 0x00, 0x04, 0x00,
  0x06, 0x00, 0x00, 0x00, 0x04, 0x00, 0x00, 0x00, 0x04, 0x00, 0x00, 0x00,
  0xb0, 0x3e, 0xe9, 0xbd, 0xe4, 0xfb, 0xff, 0xff, 0xe8, 0xfb, 0xff, 0xff,
  0x0f, 0x00, 0x00, 0x00, 0x4d, 0x4c, 0x49, 0x52, 0x20, 0x43, 0x6f, 0x6e,
  0x76, 0x65, 0x72, 0x74, 0x65, 0x64, 0x2e, 0x00, 0x01, 0x00, 0x00, 0x00,
  0x14, 0x00, 0x00, 0x00, 0x00, 0x00, 0x0e, 0x00, 0x18, 0x00, 0x14, 0x00,
  0x10, 0x00, 0x0c, 0x00, 0x08, 0x00, 0x04, 0x00, 0x0e, 0x00, 0x00, 0x00,
  0x14, 0x00, 0x00, 0x00, 0x1c, 0x00, 0x00, 0x00, 0xd0, 0x00, 0x00, 0x00,
  0xd4, 0x00, 0x00, 0x00, 0xd8, 0x00, 0x00, 0x00, 0x04, 0x00, 0x00, 0x00,
  0x6d, 0x61, 0x69, 0x6e, 0x00, 0x00, 0x00, 0x00, 0x03, 0x00, 0x00, 0x00,
  0x78, 0x00, 0x00, 0x00, 0x34, 0x00, 0x00, 0x00, 0x10, 0x00, 0x00, 0x00,
  0x00, 0x00, 0x0a, 0x00, 0x10, 0x00, 0x0c, 0x00, 0x08, 0x00, 0x04, 0x00,
  0x0a, 0x00, 0x00, 0x00, 0x0c, 0x00, 0x00, 0x00, 0x10, 0x00, 0x00, 0x00,
  0x01, 0x00, 0x00, 0x00, 0x01, 0x00, 0x00, 0x00, 0x07, 0x00, 0x00, 0x00,
  0x01, 0x00, 0x00, 0x00, 0x06, 0x00, 0x00, 0x00, 0xce, 0xff, 0xff, 0xff,
  0x10, 0x00, 0x00, 0x00, 0x00, 0x00, 0x00, 0x08, 0x0c, 0x00, 0x00, 0x00,
  0x10, 0x00, 0x00, 0x00, 0x8c, 0xfc, 0xff, 0xff, 0x01, 0x00, 0x00, 0x00,
  0x06, 0x00, 0x00, 0x00, 0x03, 0x00, 0x00, 0x00, 0x05, 0x00, 0x00, 0x00,
  0x04, 0x00, 0x00, 0x00, 0x01, 0x00, 0x00, 0x00, 0x00, 0x00, 0x0e, 0x00,
  0x16, 0x00, 0x00, 0x00, 0x10, 0x00, 0x0c, 0x00, 0x0b, 0x00, 0x04, 0x00,
  0x0e, 0x00, 0x00, 0x00, 0x18, 0x00, 0x00, 0x00, 0x00, 0x00, 0x00, 0x08,
  0x18, 0x00, 0x00, 0x00, 0x1c, 0x00, 0x00, 0x00, 0x00, 0x00, 0x06, 0x00,
  0x08, 0x00, 0x07, 0x00, 0x06, 0x00, 0x00, 0x00, 0x00, 0x00, 0x00, 0x01,
  0x01, 0x00, 0x00, 0x00, 0x05, 0x00, 0x00, 0x00, 0x03, 0x00, 0x00, 0x00,
  0x00, 0x00, 0x00, 0x00, 0x03, 0x00, 0x00, 0x00, 0x02, 0x00, 0x00, 0x00,
  0x01, 0x00, 0x00, 0x00, 0x07, 0x00, 0x00, 0x00, 0x01, 0x00, 0x00, 0x00,
  0x00, 0x00, 0x00, 0x00, 0x08, 0x00, 0x00, 0x00, 0xd0, 0x02, 0x00, 0x00,
  0x60, 0x02, 0x00, 0x00, 0xf4, 0x01, 0x00, 0x00, 0xac, 0x01, 0x00, 0x00,
  0x60, 0x01, 0x00, 0x00, 0xd8, 0x00, 0x00, 0x00, 0x60, 0x00, 0x00, 0x00,
  0x04, 0x00, 0x00, 0x00, 0x66, 0xfd, 0xff, 0xff, 0x00, 0x00, 0x00, 0x01,
  0x14, 0x00, 0x00, 0x00, 0x1c, 0x00, 0x00, 0x00, 0x1c, 0x00, 0x00, 0x00,
  0x08, 0x00, 0x00, 0x00, 0x34, 0x00, 0x00, 0x00, 0x02, 0x00, 0x00, 0x00,
  0xff, 0xff, 0xff, 0xff, 0x01, 0x00, 0x00, 0x00, 0x50, 0xfd, 0xff, 0xff,
  0x19, 0x00, 0x00, 0x00, 0x53, 0x74, 0x61, 0x74, 0x65, 0x66, 0x75, 0x6c,
  0x50, 0x61, 0x72, 0x74, 0x69, 0x74, 0x69, 0x6f, 0x6e, 0x65, 0x64, 0x43,
  0x61, 0x6c, 0x6c, 0x3a, 0x30, 0x00, 0x00, 0x00, 0x02, 0x00, 0x00, 0x00,
  0x01, 0x00, 0x00, 0x00, 0x01, 0x00, 0x00, 0x00, 0xbe, 0xfd, 0xff, 0xff,
  0x00, 0x00, 0x00, 0x01, 0x14, 0x00, 0x00, 0x00, 0x1c, 0x00, 0x00, 0x00,
  0x1c, 0x00, 0x00, 0x00, 0x07, 0x00, 0x00, 0x00, 0x50, 0x00, 0x00, 0x00,
  0x02, 0x00, 0x00, 0x00, 0xff, 0xff, 0xff, 0xff, 0x01, 0x00, 0x00, 0x00,
  0xa8, 0xfd, 0xff, 0xff, 0x34, 0x00, 0x00, 0x00, 0x73, 0x65, 0x71, 0x75,
  0x65, 0x6e, 0x74, 0x69, 0x61, 0x6c, 0x2f, 0x64, 0x65, 0x6e, 0x73, 0x65,
  0x5f, 0x31, 0x2f, 0x4d, 0x61, 0x74, 0x4d, 0x75, 0x6c, 0x3b, 0x73, 0x65,
  0x71, 0x75, 0x65, 0x6e, 0x74, 0x69, 0x61, 0x6c, 0x2f, 0x64, 0x65, 0x6e,
  0x73, 0x65, 0x5f, 0x31, 0x2f, 0x42, 0x69, 0x61, 0x73, 0x41, 0x64, 0x64,
  0x00, 0x00, 0x00, 0x00, 0x02, 0x00, 0x00, 0x00, 0x01, 0x00, 0x00, 0x00,
  0x01, 0x00, 0x00, 0x00, 0x32, 0xfe, 0xff, 0xff, 0x00, 0x00, 0x00, 0x01,
  0x14, 0x00, 0x00, 0x00, 0x1c, 0x00, 0x00, 0x00, 0x1c, 0x00, 0x00, 0x00,
  0x06, 0x00, 0x00, 0x00, 0x60, 0x00, 0x00, 0x00, 0x02, 0x00, 0x00, 0x00,
  0xff, 0xff, 0xff, 0xff, 0x32, 0x00, 0x00, 0x00, 0x1c, 0xfe, 0xff, 0xff,
  0x46, 0x00, 0x00, 0x00, 0x73, 0x65, 0x71, 0x75, 0x65, 0x6e, 0x74, 0x69,
  0x61, 0x6c, 0x2f, 0x64, 0x65, 0x6e, 0x73, 0x65, 0x2f, 0x4d, 0x61, 0x74,
  0x4d, 0x75, 0x6c, 0x3b, 0x73, 0x65, 0x71, 0x75, 0x65, 0x6e, 0x74, 0x69,
  0x61, 0x6c, 0x2f, 0x64, 0x65, 0x6e, 0x73, 0x65, 0x2f, 0x52, 0x65, 0x6c,
  0x75, 0x3b, 0x73, 0x65, 0x71, 0x75, 0x65, 0x6e, 0x74, 0x69, 0x61, 0x6c,
  0x2f, 0x64, 0x65, 0x6e, 0x73, 0x65, 0x2f, 0x42, 0x69, 0x61, 0x73, 0x41,
  0x64, 0x64, 0x00, 0x00, 0x02, 0x00, 0x00, 0x00, 0x01, 0x00, 0x00, 0x00,
  0x32, 0x00, 0x00, 0x00, 0x22, 0xff, 0xff, 0xff, 0x00, 0x00, 0x00, 0x01,
  0x10, 0x00, 0x00, 0x00, 0x10, 0x00, 0x00, 0x00, 0x05, 0x00, 0x00, 0x00,
  0x28, 0x00, 0x00, 0x00, 0x90, 0xfe, 0xff, 0xff, 0x19, 0x00, 0x00, 0x00,
  0x73, 0x65, 0x71, 0x75, 0x65, 0x6e, 0x74, 0x69, 0x61, 0x6c, 0x2f, 0x64,
  0x65, 0x6e, 0x73, 0x65, 0x5f, 0x31, 0x2f, 0x4d, 0x61, 0x74, 0x4d, 0x75,
  0x6c, 0x00, 0x00, 0x00, 0x02, 0x00, 0x00, 0x00, 0x01, 0x00, 0x00, 0x00,
  0x32, 0x00, 0x00, 0x00, 0x6a, 0xff, 0xff, 0xff, 0x00, 0x00, 0x00, 0x01,
  0x10, 0x00, 0x00, 0x00, 0x10, 0x00, 0x00, 0x00, 0x04, 0x00, 0x00, 0x00,
  0x24, 0x00, 0x00, 0x00, 0xd8, 0xfe, 0xff, 0xff, 0x17, 0x00, 0x00, 0x00,
  0x73, 0x65, 0x71, 0x75, 0x65, 0x6e, 0x74, 0x69, 0x61, 0x6c, 0x2f, 0x64,
  0x65, 0x6e, 0x73, 0x65, 0x2f, 0x4d, 0x61, 0x74, 0x4d, 0x75, 0x6c, 0x00,
  0x02, 0x00, 0x00, 0x00, 0x32, 0x00, 0x00, 0x00, 0x32, 0x00, 0x00, 0x00,
  0xae, 0xff, 0xff, 0xff, 0x00, 0x00, 0x00, 0x01, 0x10, 0x00, 0x00, 0x00,
  0x10, 0x00, 0x00, 0x00, 0x03, 0x00, 0x00, 0x00, 0x34, 0x00, 0x00, 0x00,
  0x1c, 0xff, 0xff, 0xff, 0x27, 0x00, 0x00, 0x00, 0x73, 0x65, 0x71, 0x75,
  0x65, 0x6e, 0x74, 0x69, 0x61, 0x6c, 0x2f, 0x64, 0x65, 0x6e, 0x73, 0x65,
  0x2f, 0x42, 0x69, 0x61, 0x73, 0x41, 0x64, 0x64, 0x2f, 0x52, 0x65, 0x61,
  0x64, 0x56, 0x61, 0x72, 0x69, 0x61, 0x62, 0x6c, 0x65, 0x4f, 0x70, 0x00,
  0x01, 0x00, 0x00, 0x00, 0x32, 0x00, 0x00, 0x00, 0x00, 0x00, 0x16, 0x00,
  0x18, 0x00, 0x14, 0x00, 0x00, 0x00, 0x10, 0x00, 0x0c, 0x00, 0x08, 0x00,
  0x00, 0x00, 0x00, 0x00, 0x00, 0x00, 0x07, 0x00, 0x16, 0x00, 0x00, 0x00,
  0x00, 0x00, 0x00, 0x01, 0x10, 0x00, 0x00, 0x00, 0x10, 0x00, 0x00, 0x00,
  0x02, 0x00, 0x00, 0x00, 0x38, 0x00, 0x00, 0x00, 0x84, 0xff, 0xff, 0xff,
  0x29, 0x00, 0x00, 0x00, 0x73, 0x65, 0x71, 0x75, 0x65, 0x6e, 0x74, 0x69,
  0x61, 0x6c, 0x2f, 0x64, 0x65, 0x6e, 0x73, 0x65, 0x5f, 0x31, 0x2f, 0x42,
  0x69, 0x61, 0x73, 0x41, 0x64, 0x64, 0x2f, 0x52, 0x65, 0x61, 0x64, 0x56,
  0x61, 0x72, 0x69, 0x61, 0x62, 0x6c, 0x65, 0x4f, 0x70, 0x00, 0x00, 0x00,
  0x01, 0x00, 0x00, 0x00, 0x01, 0x00, 0x00, 0x00, 0x00, 0x00, 0x16, 0x00,
  0x1c, 0x00, 0x18, 0x00, 0x00, 0x00, 0x14, 0x00, 0x10, 0x00, 0x0c, 0x00,
  0x00, 0x00, 0x00, 0x00, 0x08, 0x00, 0x07, 0x00, 0x16, 0x00, 0x00, 0x00,
  0x00, 0x00, 0x00, 0x01, 0x14, 0x00, 0x00, 0x00, 0x20, 0x00, 0x00, 0x00,
  0x20, 0x00, 0x00, 0x00, 0x01, 0x00, 0x00, 0x00, 0x38, 0x00, 0x00, 0x00,
  0x02, 0x00, 0x00, 0x00, 0xff, 0xff, 0xff, 0xff, 0x32, 0x00, 0x00, 0x00,
  0x04, 0x00, 0x04, 0x00, 0x04, 0x00, 0x00, 0x00, 0x19, 0x00, 0x00, 0x00,
  0x73, 0x65, 0x72, 0x76, 0x69, 0x6e, 0x67, 0x5f, 0x64, 0x65, 0x66, 0x61,
  0x75, 0x6c, 0x74, 0x5f, 0x69, 0x6e, 0x70, 0x75, 0x74, 0x5f, 0x31, 0x3a,
  0x30, 0x00, 0x00, 0x00, 0x02, 0x00, 0x00, 0x00, 0x01, 0x00, 0x00, 0x00,
  0x32, 0x00, 0x00, 0x00, 0x02, 0x00, 0x00, 0x00, 0x20, 0x00, 0x00, 0x00,
  0x04, 0x00, 0x00, 0x00, 0xf4, 0xff, 0xff, 0xff, 0x0e, 0x00, 0x00, 0x00,
  0x00, 0x00, 0x00, 0x0e, 0x0c, 0x00, 0x0c, 0x00, 0x0b, 0x00, 0x00, 0x00,
  0x00, 0x00, 0x04, 0x00, 0x0c, 0x00, 0x00, 0x00, 0x09, 0x00, 0x00, 0x00,
  0x00, 0x00, 0x00, 0x09
};
unsigned int model_tflite_len = 12052;

float moving_test[] = {
    0.99, 0.99, 1.0, 0.99, 1.0, 1.0, 1.0, 1.0, 1.0, 1.0,
    0.99, 0.99, 1.0, 1.0, 1.0, 1.0, 0.99, 0.99, 1.0, 1.01,
    0.98, 0.99, 1.0, 0.99, 0.99, 1.0, 1.0, 1.0, 1.0, 0.99,
    1.0, 1.0, 0.99, 1.0, 1.0, 1.0, 1.0, 1.0, 1.0, 0.99,
    0.99, 1.0, 0.99, 1.0, 1.0, 1.0, 1.0, 1.0
};

const float not_moving_test[] = {
    0.99, 0.99, 1.0, 0.99, 1.0, 1.0, 1.0, 1.0, 1.0, 1.0,
    0.99, 0.99, 1.0, 1.0, 1.0, 1.0, 0.99, 0.99, 1.0, 1.01,
    0.98, 0.99, 1.0, 0.99, 0.99, 1.0, 1.0, 1.0, 1.0, 0.99,
    1.0, 1.0, 0.99, 1.0, 1.0, 1.0, 1.0, 1.0, 1.0, 0.99,
    0.99, 1.0, 0.99, 1.0, 1.0, 1.0, 1.0, 1.0
};